[PAD]
[UNK]
[CLS]
[SEP]
[MASK]
,
0
1
2
3
4
5
6
7
8
9
a
b
c
d
e
f
g
h
i
j
k
l
m
n
o
p
q
r
s
t
u
v
w
x
y
z
##n
##u
##f
##l
##i
##g
##t
##s
##o
##d
##c
##e
##a
##m
##b
##p
##h
##4
##3
##7
##5
##6
##8
##9
##r
##w
##k
##y
##x
##z
##v
##j
##0
##1
##2
##q
th
##in
the
##er
##me
##ou
##nd
##ing
##or
##ame
##at
game
##es
##on
to
and
##ll
##is
it
##re
##ed
##it
##an
##en
##ay
is
you
##as
of
##ar
##le
this
##ut
in
##ve
##ot
re
##ic
##st
be
on
##ly
##lay
st
##om
wh
for
ha
##et
so
##ver
play
##ow
that
##al
##all
but
##ac
##ith
##gh
##ld
##oo
##ke
with
##ion
##un
##ter
not
##se
##ch
##ad
##th
an
li
##ill
##ro
##ally
are
##id
have
##ust
as
##ec
can
was
##ee
##ent
##nt
do
bu
ch
sh
like
##ri
##ap
##ore
if
##ould
me
my
##est
get
##ers
##ir
ne
com
##ce
ex
wor
##ble
con
##am
mo
##ur
at
just
##op
##ough
al
de
##ime
some
all
##ul
##ess
##ood
en
lo
up
ever
ma
your
fun
##ant
##reat
or
##ck
fr
time
##one
good
##igh
##il
##ive
su
there
no
we
one
##ven
ab
##im
##ge
##ery
##out
more
really
un
##ie
10
they
pro
very
games
tr
##ate
##play
sp
##ack
##our
##ere
##ting
ac
great
don
has
##ind
##ard
le
##ain
out
##ory
its
go
any
even
would
from
##ff
will
mu
##art
gr
am
rec
when
every
##king
##ome
comp
##ound
exp
what
##au
##os
##ort
story
he
##and
##ect
##ment
##em
bec
di
##ight
only
buy
##ast
##ation
##ice
##pp
cont
##ig
##ics
##vel
ar
over
##ue
about
cr
hour
##thing
fir
##so
how
int
played
##ause
##oy
first
ad
man
##ine
##ies
much
##ite
pre
##pt
##able
see
im
##ity
##end
than
want
##ist
then
fe
pl
still
sa
af
##ag
because
by
loo
oth
qu
too
playing
##ult
mod
bet
now
##ous
##eel
fu
hours
##ong
##ish
po
after
ve
##mend
sc
##ich
thing
recom
pr
##um
cl
feel
##ick
ser
recommend
##iv
well
ag
had
##her
lot
se
other
##ps
##act
pe
gameplay
te
##us
##ase
sim
##lf
does
way
##are
##ks
which
act
aw
make
into
who
##own
##ile
grap
##ash
got
love
graph
##ions
##int
ste
##joy
char
bad
##ty
new
enjoy
##ab
diff
peop
most
##ix
say
did
##iew
people
##ought
rev
##ade
kn
##az
best
could
co
ta
off
##ear
run
worth
##lo
better
##tle
##ide
been
also
bug
many
##kes
##te
thr
##oney
us
start
##atch
money
inter
review
##ure
graphics
contro
need
min
them
lit
##acter
character
dis
add
back
##ple
##mo
##age
try
again
##ace
thin
end
down
pret
des
##ful
##les
##riend
##ious
while
hard
##ence
pretty
op
friend
know
ro
fa
##ild
##iz
work
##ons
##ually
##ass
kill
##ning
amaz
##ial
##ving
##ls
level
##ms
fix
20
##ct
amazing
##ft
##gr
where
fin
##ire
comple
##arly
##ree
never
few
##eri
bl
str
real
should
steam
comb
##less
through
find
##qu
think
tw
made
stu
##wn
bor
long
day
sy
far
acc
##velop
##ign
being
little
##self
year
develop
##ach
##ans
imp
bas
pu
##nder
upd
things
dec
##iss
##ever
##gin
same
##ose
sl
##hing
crash
##ated
fuck
eas
wa
mult
high
res
def
chan
per
bit
set
may
##00
sur
##de
##bo
##fu
sk
multi
##line
##stem
##fore
sin
##ount
system
experi
dont
##eep
around
##oss
gu
br
their
world
##be
##ating
##oot
before
##ip
bought
though
point
ter
part
##ved
were
##aa
build
miss
wr
differ
##other
something
shit
inst
nice
player
interest
iss
proble
pc
##orm
going
since
##lc
rele
inc
nothing
right
full
friends
combat
##player
##ise
ll
##ual
give
##ments
everything
bugs
why
war
comm
##lut
##gy
server
##per
##way
use
look
rep
times
opt
wait
old
come
actually
##zz
map
dlc
take
tri
dev
early
makes
fl
however
different
gen
cons
supp
sound
doesn
let
experience
shoot
##fe
##urn
##rible
mech
##vent
complete
##ens
##ark
enough
##esome
characters
##ond
price
hor
##ra
unt
mechan
getting
awesome
without
##ool
boring
put
two
sing
pers
##di
scre
##itive
##ues
enem
creat
puzz
##cept
che
##ph
here
multiplayer
gl
big
single
##ail
es
##icult
jo
short
##ance
under
players
hop
interesting
##ys
controls
vers
##ason
sale
kind
difficult
##ves
keep
##itch
##oth
mon
those
expl
ori
att
own
bat
##ished
content
mode
years
free
until
minut
##ady
##ked
ext
app
feels
##ates
once
perf
quite
##ably
defin
##ward
chall
anything
##yp
person
turn
looking
sec
isn
surv
##ways
cam
access
##time
weap
easy
##ows
##ical
fps
didn
happ
##ia
mus
##ically
origin
##xt
##ging
hack
ke
challen
pay
commun
yet
##ol
##ations
won
##ber
##ry
art
sure
##ced
another
version
life
open
online
##app
ed
issues
abso
mechanics
sm
music
##ary
such
ob
##ak
##most
##pg
cur
these
##ible
absolut
##ars
sty
load
ok
##que
almost
##li
trying
cant
##aut
##ater
fo
refu
##ead
##ially
fact
design
always
em
hu
##tain
##ative
fan
minutes
##gg
having
##ures
team
series
reason
hel
##unch
##cks
##omb
gets
thought
setting
##ict
ho
prob
reg
##ath
gun
update
refund
dr
community
done
hit
fucking
overall
seems
pur
unf
expect
absolute
original
##we
##ors
problem
ple
##ased
lack
##lt
lag
tell
ide
gam
found
each
looks
##dd
simple
surviv
progr
probably
devs
ass
##if
##ily
##ense
support
beaut
cool
##ta
fav
style
##get
last
##ces
main
##ready
second
##oint
##ken
hon
el
##wh
stop
already
##aster
##oooo
##ten
maybe
##ss
fant
able
##ately
half
rpg
bro
##ave
might
plan
anyone
beauti
h1
release
terrible
##ition
stuff
eng
bo
lear
making
low
##ts
##ather
zomb
tried
cou
port
slow
uni
##der
honest
201
crashes
waste
super
star
help
hand
tot
ann
said
mods
die
pot
buying
developers
sol
less
watch
poor
must
##ari
ban
servers
##oice
hope
move
based
rand
space
yes
screen
building
la
##itely
cann
requ
camp
simp
match
random
typ
##box
everyone
away
weapons
##ustr
vis
comput
quest
##ouse
30
instead
least
##ility
controll
beautiful
save
spend
hell
purch
incre
gener
used
extre
definitely
##its
class
whole
ru
##ieve
call
rem
pros
ai
##uct
ph
works
dri
##ted
##rent
esp
feat
read
reviews
idea
enemies
##tr
quick
perfect
levels
##omend
cut
amount
tit
##ned
ran
frustr
sometime
##ither
wanted
##ator
##bly
##ossible
lots
impro
##etitive
serious
vide
##ying
glitch
cannot
absolutely
val
##rr
mean
spent
##form
ent
##pect
list
dead
survival
simul
puzzles
enjoyed
av
##ght
wal
please
change
dep
extreme
##ecially
##el
##av
##ential
worst
##vious
ins
##aw
itself
##ding
##astic
computer
##ump
fast
const
##ah
sometimes
##aking
wo
decent
loved
started
both
disapp
next
sw
##ited
strate
wish
huge
pick
rel
##aaaa
##lock
takes
dam
cle
highly
eff
skill
become
doing
running
key
progress
current
##stand
action
dark
fight
car
##na
item
needs
especially
favor
else
came
det
win
spec
ind
patch
bre
optim
broken
annoy
wind
##aid
either
##ny
giv
##antly
disc
beat
problems
sad
battle
##umb
stand
##iec
##hh
fall
##ets
##ds
fantastic
boss
100
##uck
someone
wrong
spe
completely
exc
potential
cust
unless
##load
15
seem
updates
##iting
##ject
et
rest
inv
due
##ings
extremely
concept
side
top
mind
##atter
small
enjoyable
campa
custom
dro
##istic
##cc
##uring
unique
her
launch
##lly
##og
plat
seen
rather
finished
arm
##ared
campaign
atm
##ins
days
##ress
##ged
myself
settings
left
etc
simply
click
fre
rock
##unk
shot
replay
controller
fixed
base
##ization
bel
##lu
line
basically
##rect
anim
month
hum
honestly
understand
prom
yourself
##ang
men
begin
##pr
incredi
alot
enter
##ized
missions
##ird
runs
60
care
##ween
##iso
took
entire
ele
mess
control
##though
##ised
past
finish
##ention
##ower
maps
##ards
challenging
ret
oh
head
##ities
##ines
##track
difficulty
met
##mm
between
his
atmos
voice
##day
unplay
##dy
released
inf
##ize
haven
##ices
figh
pol
gi
##pid
neg
although
##ider
##lling
annoying
jump
grind
##ier
cer
using
##iece
happen
fair
stupid
ach
hackers
visual
ago
unplayable
gar
exce
##ointed
puzzle
horrible
##nect
later
##eck
##tt
buggy
##ges
favorite
fine
pos
strategy
butt
felt
platform
opin
advent
ep
edit
##ortun
mic
soundtrack
##ilar
enemy
issue
##owing
##ho
compl
items
civ
bal
place
##ord
fail
certain
lim
attack
hate
tal
##ined
sou
##lls
ps
alph
death
##ided
##ality
vari
##res
liter
working
repetitive
wee
cor
wonder
##med
features
video
scen
##alth
##nter
explor
alpha
mouse
frustrating
shooter
tut
pass
##ming
##sc
sever
thats
cheat
##ired
opinion
ye
crap
##orial
simulator
wall
##awn
liked
matter
during
went
##ots
gta
##ides
##icul
red
med
learn
tutorial
zombies
##oil
##ently
upgr
lost
##fully
recc
##ness
couple
##idd
solid
##land
coll
gaming
##phere
except
contin
##led
master
##ling
comes
conf
cra
foll
wasn
##ror
finally
worse
smo
##ii
recommended
cap
##ret
##vers
literally
paid
others
##man
consider
50
title
lar
sn
##wor
guns
funny
state
unfortun
##als
sat
doll
atmosphere
excell
god
##ush
seriously
cheap
type
##where
fig
download
du
options
sense
killed
fighting
negative
##mber
total
ref
dest
prod
##tu
couldn
adventure
guess
spoil
windows
excellent
aspect
ev
goes
often
##gether
mission
aut
##raft
sit
sucks
cs
added
##ising
par
##more
city
reme
inclu
##bb
##ger
effect
detail
soon
install
##ross
check
stuck
sub
cho
maj
event
months
##board
wouldn
ship
development
engine
gre
mass
against
##ake
together
achieve
addict
connect
ending
tech
desp
##anced
him
##go
easily
sky
guys
##pl
##rim
improve
previous
job
beh
loot
direct
night
power
hun
imm
compan
cas
developer
fut
kid
##ook
plot
pop
cause
waiting
major
object
storyline
youtu
sort
##oc
longer
classic
ear
reccomend
phys
genre
name
##ian
##oid
awful
plays
kinda
##99
##gic
several
conso
purchase
anymore
feeling
col
##aly
garb
##isf
black
saying
tru
##ips
stay
entertain
quality
env
ap
##com
choo
##ional
dial
coming
remember
garbage
##ecting
11
decided
non
norm
impossible
close
bored
perform
##ware
##ages
challenge
damn
##lution
true
##ib
three
interact
mostly
##like
luck
##ety
##ability
##up
mem
figure
quickly
exam
killing
##ale
text
pack
forward
actual
tact
order
unfortunately
basic
show
despite
aren
ways
mix
adv
acting
deep
fire
totally
kick
similar
zombie
glitches
hold
err
##aces
guy
depth
smooth
##arely
##oooooooo
rid
xbox
complain
##uu
ub
##ax
okay
##eeee
##0000
##aced
sch
num
choices
cre
menu
##osed
##ters
resp
exact
doesnt
along
##ern
keyboard
12
weapon
cop
cost
##star
count
##ner
40
fran
elements
dialog
gave
gives
pub
constantly
future
ive
horror
piece
trans
99
saw
moment
max
##azy
recomend
dun
unlock
stri
multiple
##ane
wont
surpr
fly
sand
pain
possible
##ats
##cing
button
loading
##arr
##uss
product
##asing
htt
proper
manage
monst
reward
incredibly
##eeps
enc
satisf
##wise
##ists
##60
choose
alone
chance
explore
thinking
##des
positive
example
deal
says
means
playable
squ
room
writing
heart
##ream
land
lose
ram
ali
##gn
account
large
##cus
physics
flaw
##air
suck
##top
keeps
stealth
points
believe
##unky
##ied
realistic
cour
disappointed
##inst
beta
performance
final
walking
form
variety
##augh
tons
impress
##ences
##right
##gue
plus
strong
##ped
souls
truly
##ren
immers
console
option
parts
##aging
shooting
loc
dou
##ific
she
spawn
otherwise
batt
create
walk
##ires
value
au
mention
ult
modding
##ents
##over
##80
repe
crashing
##wer
focus
envir
##face
destro
##gs
##icking
near
valve
din
gon
pres
rockstar
stra
##thr
company
##isoft
bull
##install
##ne
behind
dollars
quests
##ield
collect
post
environ
face
fill
expected
gt
given
bi
id
##ensive
join
youtube
within
cars
ubisoft
##body
mark
##ecraft
##ww
poorly
yeah
banned
##acing
##bs
##ories
shame
##aaaaaaaa
remo
##era
diss
live
visuals
prov
regret
clunky
dunge
resour
ones
addictive
minecraft
massive
poss
gonna
sounds
blood
giving
bother
mov
trash
obvious
##ock
special
fans
##lee
##enty
gone
dayz
drag
##ular
##aps
card
sandbox
desc
speed
aim
##ades
sugg
looked
course
##iced
eu
child
core
##cy
avail
leave
beginning
intro
ey
rate
suggest
terr
##actions
##ron
thanks
cod
offer
avoid
sadly
##ipp
happy
##ouch
##hic
changed
micr
grab
compared
##fting
##olution
frame
fam
straight
##iculous
200
our
learning
didnt
missing
test
##ading
opp
attem
nearly
personally
lock
##ci
ant
##quel
weird
units
taking
90
##aged
gtx
cry
battles
movement
camera
##lish
limited
ui
fur
home
##gest
break
write
##cer
##work
##side
##ives
##verse
sor
##ther
track
planet
wow
press
starting
hero
path
cards
endless
barely
gear
medi
##iles
##no
bring
number
##ru
##through
occ
hyp
thumb
starts
##sh
imag
usually
narr
##arch
today
cheaters
dist
##ains
##lect
worked
currently
fairly
called
none
exactly
##arent
rts
decis
follow
require
ark
##bal
whate
hist
##ground
casual
franch
pri
tre
listen
crafting
becomes
whatever
slight
plenty
modern
addition
ton
##ape
available
light
error
ability
grou
wonderful
choice
allow
descri
lea
##ew
freez
##hhhh
bucks
achievements
counter
##inting
expans
stick
##yy
exploration
import
heav
##ote
##ank
episo
spoiler
ur
##ilities
clear
strike
coo
supposed
mach
general
laugh
16
complex
sequel
heard
reading
deser
##co
normal
##ng
sorry
ign
##gb
biggest
changes
##ef
touch
glad
seconds
program
cu
##ones
edition
skills
##ism
third
ridiculous
franchise
##wards
##otr
##ounter
isnt
rogue
##illi
air
designed
vehic
arc
dissap
fallout
died
cau
destroy
##sing
sold
continue
confus
##br
theres
box
##what
imme
encounter
##dio
needed
pv
turned
minim
ruined
shitty
week
bar
step
constant
vi
tra
uplay
incredible
lets
somewhat
bunch
graphic
updated
microtr
attempt
ted
wan
view
son
##ange
restart
further
optimized
writ
pvp
remind
anyway
##scen
paced
extra
dialogue
lead
exec
school
adm
##ether
bosses
entertaining
microtrans
gir
thumbs
watching
driving
house
hear
humor
water
brilli
ball
##py
indie
##yn
seeing
25
reach
##ink
##icated
tur
skins
laggy
drop
purchased
flo
breaking
expecting
town
##icting
joke
bey
vr
##game
kept
area
execut
cash
##ler
##red
singleplayer
##ruct
cutscen
russ
##ont
##ove
##ecess
fully
excited
mob
equ
relax
##ati
turns
happens
deli
playthrough
command
##ointing
beyond
satisfying
##fer
crashed
competitive
log
trail
told
##ping
dra
wasted
round
##asy
ground
feature
crazy
mist
across
animations
modes
age
optimization
interface
ships
sign
##net
##hop
##ination
epic
##ilt
mechanic
ut
dungeon
exist
forget
upon
thank
hoping
##lic
##asons
drops
lol
##rop
adding
balance
moments
case
sal
dem
requires
appear
platformer
improved
finding
ah
mar
##pc
##70
dumb
##cess
upgrade
cute
boy
effort
quit
areas
mot
insane
addicting
present
train
dinos
drive
survive
border
##ham
completed
favour
##ison
party
properly
##fps
skyrim
##lands
ask
considering
soft
moving
prot
##ina
pure
note
brilliant
tedious
succ
var
arma
damage
ruin
environment
tactical
##rs
mor
bur
hot
hund
https
##atic
fantasy
bes
npc
funct
happened
boo
till
init
##gu
emot
randomly
food
search
movie
##ell
ill
discover
##how
summ
group
##light
leg
##ded
resources
explain
experien
return
four
useless
pen
select
workshop
pred
interested
2d
invest
ea
uninstall
screw
##ugg
pract
direction
above
##ope
forever
##ud
store
weak
##ering
success
monsters
unfin
forum
##ants
apparent
mil
solo
shad
14
##stal
linear
##od
nor
replayability
##ending
filled
esc
wanna
wants
ess
##ky
##tale
##pu
seemed
##esh
invol
attention
##ident
masterp
##sel
rage
rob
resolution
micro
lacks
##ga
gold
novel
mad
curve
planets
##ises
lap
ready
unfinished
fights
certainly
bus
microtransactions
cast
arcade
king
throw
talk
aver
dying
recently
demo
rush
block
flash
shows
season
lacking
witch
unlike
unre
stopped
80
reasons
internet
titles
introd
gri
human
written
mac
enjoying
connection
myst
copy
blast
important
harder
meaning
created
market
screens
everytime
kids
creative
fixes
effects
stun
emp
aspects
techn
##irt
##aria
squad
built
##to
recent
aff
craft
chap
##xic
force
engaging
stage
including
minor
ultim
dele
##iddle
##vert
rip
##hit
somehow
twice
management
types
alien
bulls
##idden
immersive
##ero
history
immedi
switch
polished
higher
forced
likes
doub
gotten
alright
civil
compet
invent
aband
##back
##iev
19
##tf
portal
whether
magic
words
ended
doom
various
que
scary
##ley
nostal
dlcs
masterpiece
rating
minute
taken
suff
grand
sell
universe
patches
laptop
videos
average
ble
3d
five
walls
##ored
date
hands
tower
self
pix
flying
customization
##ribly
events
prof
capt
slightly
hey
exploring
meh
park
repet
360
became
cover
terraria
##for
terms
theme
wars
realize
##tern
kills
##use
background
pun
particul
infin
dut
forg
##aring
repeat
racing
adds
assass
empt
har
appe
abandon
perfectly
likely
##iness
##ibly
ii
clearly
progression
bot
everywhere
talking
word
www
##action
chines
flaws
result
conc
late
##cle
weeks
wtf
gamer
matchm
mur
middle
dull
ver
##ient
imple
personal
offic
prep
raid
snip
toxic
##ointment
nat
loads
##gth
roll
confusing
evil
shooters
chinese
##port
easier
net
##ague
window
grinding
eventually
##selves
##aur
##dddd
intense
##ivity
warning
host
software
auto
favourite
duty
##core
systems
ten
matches
balanced
blue
meet
audio
lay
stream
matchmaking
bullshit
implement
imagine
2015
empty
##acy
##ites
##nn
swe
spending
##mer
##oud
##ns
process
promised
pir
hype
##aks
##ault
region
##ume
sick
upgrades
hidden
mine
##ses
episode
lobb
interactive
##entially
##con
aside
managed
##iny
besides
rewarding
trust
deliver
offers
killer
health
buildings
classes
fresh
mis
project
goo
gem
fell
keys
appro
cutscenes
apart
user
nu
fixing
obviously
td
expansion
scro
expensive
sil
##erate
greatest
prefer
brings
towards
experienced
##ases
strange
spr
tas
##eeeeeeee
friendly
stories
2016
gamers
spot
knew
##uuuu
##aling
anti
abilities
2017
failed
##oooooooooooooooo
trou
tag
utter
telling
exciting
mill
sudd
unable
prem
13
##mb
correct
vehicles
apparently
ideas
hopefully
mid
regard
moves
push
sect
scenes
relaxing
crit
machine
paying
frequ
throughout
textures
front
odd
race
older
ner
doubt
gal
libr
tho
##ares
##rd
borderlands
island
occas
pati
possibly
score
situ
##erous
sudden
##bing
hoo
##cial
##reds
##00000000
inventory
zero
sour
bullet
dream
##etic
board
outside
tar
hur
places
##ker
disappointing
##ively
##da
hardcore
##he
challenges
wise
gor
cy
heavy
joy
animation
draw
dig
flu
mixed
witcher
##rif
inside
library
##point
immediately
##aming
##appy
bland
vs
##ssss
piss
##ze
pull
wi
##oun
scr
known
allows
table
following
picked
lat
decisions
hundreds
explo
decide
dragon
english
page
slowly
##sp
ends
hacker
ans
##gend
advert
ahead
themselves
road
coop
hilar
reminds
dropp
perh
##fs
##hip
row
medioc
blo
glitchy
solve
perhaps
legend
cri
pixel
entirely
##ders
tree
tl
##kill
spl
eyes
cross
changing
putting
below
standard
##aim
jumping
request
family
pubg
cancer
travel
role
surprising
giant
http
defense
##read
ups
shouldn
lower
arr
sonic
cree
mount
skip
clos
eat
developed
3rd
hacking
battlef
fram
##agon
gather
stunning
ligh
lore
bios
##ract
moon
##gle
##hock
feed
sci
question
door
mobile
admit
bon
##ators
hilarious
##bit
##ishing
##sty
brought
simulation
kicked
forums
##io
metro
mistake
handle
ce
tough
rank
havent
da
mins
##ka
##by
tro
i7
wild
##ub
csgo
##20
##gry
tries
##iding
nav
##eric
dod
fi
##uitive
pleas
gorge
euro
##ox
##lus
ty
mediocre
monster
##bre
fil
offline
lin
introdu
rich
shall
tactics
heroes
scene
fit
##aaaaaaaaaaaaaaaa
incom
earth
tim
complet
##gun
##ands
shadow
stut
##oman
uns
pointless
attacks
badly
eye
dinosaur
required
##ption
range
rough
ra
##ball
buttons
len
gorgeous
##ug
bioshock
oper
iv
removed
peri
rpgs
##orting
limit
equip
##whel
hang
rout
target
local
##ex
code
chapter
promise
inform
##ingly
creed
##rets
##ma
##9999
payday
lazy
ded
exper
files
##ney
bigger
army
##iest
##reci
hasn
notice
infinite
melee
##ians
generally
rig
##gia
24
faster
brain
sweet
abandoned
dollar
source
##illy
refunded
##ahah
flat
##logy
##ario
sup
ast
dang
neat
dissapointed
clim
objects
alive
expectations
book
murder
##ision
##10
goal
accur
medium
installed
cat
##ux
common
essentially
floor
pace
ammo
rng
nope
narrative
spam
lobby
americ
refer
ris
cheating
ultra
##ese
##umps
wanting
slee
mut
details
1080
band
shut
assassin
telltale
instantly
specs
##z1
und
whenever
waited
resear
cent
##pad
research
jour
russian
improvement
##ili
metal
est
##ipped
report
##orable
safe
hopes
vill
asking
ge
appreci
mer
##ended
purp
h1z1
function
freezes
nv
tired
nostalgia
color
dyn
continu
sent
van
brut
activ
memory
armor
crappy
trailer
greed
official
ben
meant
detect
##balanced
lie
foot
##craft
bab
detailed
popular
##ital
difference
locked
##ries
parad
lags
batman
white
cities
accept
thous
anywhere
endings
vac
##vv
idi
technical
na
##50
stress
abs
18
mas
##ionally
actions
##oon
hd
##izing
uses
complicated
unp
##rupt
glo
##ances
truck
##iment
remaster
tor
creating
trick
twist
rain
lowest
sword
##ceed
grow
song
##ha
ww
rocket
leaves
autom
platforming
##ency
2014
##amp
improvements
leaving
fault
##onnect
slash
##here
discount
unit
desk
powerful
anime
##kk
realized
latest
xcom
empire
amd
escape
stat
consist
##rrrr
possib
gain
stars
catch
ping
playtime
ps3
##onsive
rare
diab
000
scam
requirements
##gan
boot
##ured
freed
onto
ps4
losing
imo
forgot
describe
asked
decision
strugg
mainly
##put
willing
fucked
framerate
##thes
frustration
chec
##esting
purchasing
selling
picking
length
generic
insp
cir
surprised
##apped
send
hooked
##log
girl
##iiii
unreal
graphical
##uster
vast
tele
wolf
iron
normally
sitting
mother
models
mini
stats
rul
factions
sight
punch
file
stages
civilization
dog
freedom
intri
countless
six
answer
artwork
##kward
knowing
watched
##ager
speak
lucky
disap
##owers
sens
##ify
##angu
broke
approach
holy
pile
scri
sho
ca
plain
fluid
17
tiny
serv
stre
sequ
initial
worlds
ga
blow
tem
##van
disappointment
battlefield
##iving
cart
knows
##bu
##hood
##aper
breat
information
diablo
craw
##cu
trouble
costs
tab
##11
retro
aaa
forces
active
wer
specific
ger
gamemo
complaint
trading
##ey
hits
downloaded
social
##just
monit
##hhhhhhhh
bomb
rad
bethes
enjoyment
period
clean
fails
users
accom
xd
unfair
tast
unbalanced
castle
cal
cpu
ug
minimum
##hammer
hardly
##ancing
silly
##ieces
##min
alt
##bers
##base
reinstall
rece
aliens
animals
remove
double
##pe
yo
langu
##ister
atle
wheel
##tw
involved
bethesda
somewhere
stable
originally
purpose
crew
1st
##bed
64
1000
noo
mater
roy
atleast
achievement
nvid
mmo
##iliar
fle
##inter
twe
generated
creatures
lines
promising
falls
##full
expand
smash
nowhere
compar
2013
##66
suddenly
300
hide
bott
70
##itions
amb
stands
chr
simpl
##arded
surprisingly
vo
hello
menus
gotta
##host
cha
nobody
##whelming
##etly
##ste
##gged
tells
awkward
tools
minimal
loving
dos
message
couldnt
summer
bots
metroid
hrs
among
premise
ghost
vict
##ural
nvidia
knight
wouldnt
00
tend
inde
finishing
bonus
##iers
##power
milit
div
trees
destroyed
##esth
comment
thrill
missed
ing
jap
clicking
##atively
cred
sess
cents
bullets
prison
##ift
##world
size
virt
pict
shark
aesth
objective
reset
bind
versions
clever
sex
environments
##ric
farm
##88
jumps
deserves
material
##pher
##yyyy
depending
explos
freaking
##ication
scale
flight
reload
journey
500
races
defe
##reen
intuitive
heavily
##oming
patience
necess
repl
steal
mag
creepy
impressive
body
affect
compare
included
desktop
colon
prim
shots
ruins
ignore
opening
shallow
##ered
hy
frustrated
impressed
paradox
noticed
disconnect
fro
hunt
##33
##ously
regular
polish
warhammer
fool
bugged
wide
respect
conv
apoc
figured
sniper
pieces
##vania
edge
equipment
wit
syn
openiv
stutter
##aded
japan
##atly
overkill
smur
shotgun
corner
execution
mi
ride
##omin
tight
##ament
horribly
motion
##some
##style
##lier
##lder
om
errors
typical
element
untill
factor
driven
##ely
provide
unfor
##isation
solution
penny
spin
fat
wood
chop
las
arch
saving
##lessly
clone
compe
fear
##ief
elite
leveling
keeping
remake
ugly
chat
sam
##iff
happening
claim
##well
realy
oppon
evol
sales
dynam
thus
##off
farming
ages
teamm
##apt
recommendation
lovely
##amed
conqu
##ushing
##akes
combined
##arily
majority
military
jokes
hint
##nov
saves
ultimately
rome
rarely
consum
##watch
guide
##ddy
viol
##nown
resource
visually
ba
pra
overpr
memories
aware
respond
tun
charm
4x
particularly
lego
##sed
cos
forest
produ
render
publish
##bl
doz
atmospher
tick
popul
skin
arkham
##ails
dinosaurs
fort
welc
##hy
adjust
prevent
lame
2k
45
realism
##ruction
encountered
spoilers
awsome
emotional
risk
innov
##cs
##ipping
wip
##met
charming
whats
wasnt
setup
harv
intrigu
treat
rif
dropped
era
prior
angry
bund
uninstalled
sain
mystery
saved
zone
som
warri
definately
navig
##ato
vehicle
anyways
learned
signific
##ores
thrown
compelling
dedicated
script
##ki
##key
via
smart
sun
executed
rules
experiences
##gggg
fal
npcs
bottom
overpriced
##mes
immersion
boost
sims
appears
storyte
agree
protagon
scratch
den
screensh
##iring
entertainment
genu
tutorials
lv
hardware
appreciate
everybody
pan
thor
completing
dislike
shop
language
75
prec
##hole
wasting
knock
##ai
meat
##but
steep
dick
gb
##wers
reality
psy
default
smoothly
soul
scenery
implemented
cin
##unity
##iche
defend
business
plane
simplistic
cuz
pve
green
breath
nature
tank
strongly
turning
econ
downside
##cent
allowed
practice
tomb
whil
storytelling
hunting
relatively
regardless
baby
rac
objectives
os
##ti
##come
faction
2nd
compat
shock
##coon
##lusion
powers
##ami
bri
welcome
situation
dat
hyped
##illa
impact
input
##hile
delay
##run
station
ff
##uth
dogs
helps
record
strategic
frames
ingame
atmospheric
##rated
payed
greedy
econom
rust
tracks
provides
suit
##ried
struct
gamepad
million
weren
numerous
charge
combination
puts
refres
##bel
##old
dies
##ival
##tl
sne
hole
releasing
##down
beating
public
legit
repeated
dated
terribly
comments
##eter
solving
club
selection
btw
model
retarded
terror
mp
address
creators
planning
##round
accompl
##pective
##plete
fund
troo
excuse
trade
movies
tycoon
trigg
blocks
der
whatso
bs
##por
creation
cases
awhile
nightm
##lesh
computers
##lutions
promises
field
monitor
altern
##omen
dad
brother
##ified
hi
config
genuine
##ula
bloody
hill
##men
modders
feedback
blind
familiar
focused
locations
living
loves
task
mediev
spi
apocaly
##kin
children
##mmmm
transl
polit
vol
##gust
superb
ax
taste
brutal
sleep
frequently
advant
galax
rushed
rot
secrets
##90
whilst
##powered
whatsoever
heads
south
aiming
##erior
warf
199
priv
linux
ir
utterly
dish
##etive
lab
trad
ment
collecting
##uc
attach
tool
numb
##lines
##ral
##ived
secret
pls
predecess
##ames
exit
sem
dude
thousands
updating
cond
drivers
gig
jud
raider
particular
redu
medieval
poo
##orn
increase
global
harvest
carry
##ners
childhood
##esy
ultimate
worry
frank
##ium
dungeons
##ivid
thorough
cult
boxes
polic
respawn
service
usual
outd
recommending
tv
appeal
##standing
lives
saints
heck
holding
prepared
spir
er
jack
collection
irr
fing
ya
intel
##ray
bag
earlier
hitting
spect
resident
addicted
##ert
christ
##llll
hat
je
split
ze
##ids
drm
chill
additional
doors
unk
breaks
youre
##lies
league
##40
##china
surprise
worthy
falling
url
packs
regionlock
unforg
busy
bare
earn
bow
suc
##dddddddd
logged
i5
searching
cen
include
accurate
suppose
interaction
protagonist
sea
useful
phone
cinem
roguelike
survivors
ss
overly
strateg
##ude
badass
memorable
episodes
##rid
owned
robot
europ
sets
gg
bundle
##bound
ds
meets
advanced
sooo
##ued
invis
cartoon
perspective
paper
##rict
fish
##ords
audi
##war
##dom
square
##ife
american
wand
peace
##ictable
hitman
##kend
histor
regionlockchina
delete
bast
##rew
display
rewards
gamemodes
oc
##ables
tan
##2p
humour
newer
depend
initially
balls
checkpoint
deserve
russians
girls
deleted
warfare
studio
rooms
screenshots
loose
##par
gpu
outstanding
surround
##ja
deus
chick
indust
psych
listening
section
teach
launcher
complaints
##llow
perks
##f2
gunplay
##arks
depress
burn
##ole
mood
san
balancing
china
fighter
##ining
nin
pist
stops
remain
soldiers
bud
advance
incomplete
ske
galaxy
mat
supr
scared
mentioned
beautifully
##used
builder
unn
description
cd
amazingly
nicely
launched
prin
intriguing
false
mining
survivor
winning
truth
packed
##break
editor
unst
techno
crack
xp
production
dodge
hacks
announ
share
pirate
notch
unc
greatly
naz
lies
trip
patched
##pse
##ording
susp
varied
weekend
mm
reve
freeze
35
##mod
location
google
enh
##gas
expansions
generation
instant
definetly
amounts
60fps
webs
crafted
ridd
completion
becoming
obl
unl
neither
overwhelming
obs
deg
combos
hurt
hardest
idiot
holds
conclusion
##isting
platformers
bir
##af
questions
spells
grindy
thoroughly
impression
21
resol
discuss
cave
hitbox
##rpg
terrif
insanely
##alone
##sequ
##ibility
controllers
logic
named
iii
throwing
references
##screen
quir
helpful
##ays
continues
##aven
##ica
chore
##ests
gab
plz
wondering
##using
##uction
##nnnn
potato
combo
complaining
##ster
session
reccom
mash
arena
encour
garry
caught
trailers
ju
convers
##aac
reb
country
screwed
standalone
hated
undertale
trial
relations
surface
lvl
##ours
loaded
beaten
gore
showing
customers
position
cutscene
phen
dirt
young
32
oce
correctly
unknown
passed
##boy
isaac
##ledge
prepare
introduced
hav
dear
respon
ranked
##eeeeeeeeeeeeeeee
revolution
##view
goat
anybody
unlocked
beware
considered
##pting
highest
rocks
comparison
mario
supported
##oring
##uuuuuuuu
ps2
sie
##cious
cup
refreshing
omg
transactions
teammates
german
standing
cheats
##icate
nut
bits
##band
private
##bow
warned
customize
remastered
accident
##ptic
##ches
teams
royale
##fy
advice
drawn
guard
deaths
sucked
##icing
##ogn
layout
headsh
dust
forcing
hook
therefore
individ
##oooooooooooooooooooooooooooooooo
center
sche
includes
flow
blend
allowing
crates
##comm
suffers
responsive
frequent
smurfs
kingdom
##ieved
##arios
gate
##irm
offensive
hes
buck
japanese
trop
minig
advertised
dishon
##ssssssss
hous
bear
gren
2000
aswell
messed
vanilla
nightmare
##the
##ension
jrpg
myster
invisible
builds
##atives
cheaper
arent
gathering
realise
landsc
lord
##0000000000000000
##hz
wave
mom
inte
gim
teamwork
irrit
##anted
##uel
dynamic
innovative
400
pissed
disgust
##ius
rubb
police
sides
noob
indeed
##oof
maint
situations
##hrs
feet
cold
##ache
pat
dawn
deter
designs
mir
ridiculously
creator
larger
##unt
consoles
opportun
eve
beast
becu
reccommend
egg
stuttering
dram
##aughter
unity
threat
ftl
feelings
possibilities
##do
##fall
terrain
advantage
##row
oppos
unforgiving
customer
bed
wrote
followed
chaos
shield
##ribut
thoughts
defeat
##iet
loss
##fort
manages
ripped
maf
loud
##book
repetative
recogn
starve
distance
gf
pad
outdated
contact
budget
proceed
##bar
blowing
steps
spell
deck
faith
campaigns
demand
##uses
troops
occasionally
sake
response
leader
ck
link
divers
requested
dangerous
teleport
##tttt
elder
ops
##atically
##awning
##ching
route
rom
envi
ish
frankly
bank
street
cosmet
dd
tasks
rap
##nes
tanks
blur
rebo
binding
metroidvania
shown
invested
helped
ident
wife
wich
auth
nerf
scenarios
##fest
priced
##sy
circ
attempts
lighting
fem
demon
training
colors
europe
##itly
spaces
intended
kinds
moved
22
##pping
chose
mafia
bright
clue
mistakes
##ik
fac
grav
##urd
spirit
bases
blade
failure
tale
storm
traps
overl
proced
dime
overwatch
intr
rounds
nons
swing
ruining
upset
47
exe
pet
influ
dow
fol
freezing
unex
##ront
necessary
##while
##tim
explan
lan
genuinely
members
data
##po
##ams
brand
policy
formula
planes
semi
veter
##vant
clock
obst
punish
driver
winter
seemingly
ranking
##ync
##cl
rifle
becuase
pacing
praise
##ora
ocean
downloading
##99999999
lagging
ti
experiment
##istent
creativity
installment
contr
diverse
sum
grew
practically
hunter
flesh
##list
knife
earned
register
patter
website
rubbish
rub
inspired
##ented
idk
accomplish
dino
twists
causes
##resp
tom
##acting
ri
##avi
lackl
16gb
wre
vote
twitch
results
lad
prime
robots
##kers
stale
pathetic
##cr
forth
difficulties
reboot
pause
hair
unb
lu
scares
scrolls
##olves
contain
styles
##tress
confused
materials
wake
##perate
related
industry
##let
fits
##nel
victory
goals
stab
playerbase
concepts
protect
bothered
narrator
customiz
##iling
handling
flag
capture
subst
convin
supporting
paths
horse
speaking
posit
numbers
stren
closed
##ouge
##ih
##aaaaaaaaaaaaaaaaaaaaaaaaaaaaaaaa
books
waves
bill
heist
dot
tier
pa
glor
hoped
silver
olds
enjoys
knowledge
stell
scenario
growing
repair
##ups
970
ninja
roller
integr
bum
brows
aesthetic
##ulting
hundred
disapointed
##ested
##wwww
predictable
##inct
uninter
smaller
commander
fortress
repres
warrior
looting
houses
led
wonky
lights
euros
##orts
##eg
theft
struggle
machines
individual
intell
##olog
vegas
shift
presentation
sega
absurd
metho
##soft
graphically
occasional
reasonable
1080p
texture
maxim
parkour
predecessor
zeld
outcome
publisher
pump
curi
unstable
dipl
##others
ak
checking
litter
pin
releases
caused
arrow
tf2
sections
ramp
gang
adventures
directly
economy
cheater
starbound
copies
sync
hom
ren
##abl
##raid
##clear
##itude
successor
deeper
prop
causing
zelda
unbel
fri
##ony
##ung
ww2
ice
scroll
explosions
painful
songs
##punk
personality
diplom
##cking
godd
##eds
##mas
hall
aged
career
yea
exception
chapters
buff
junk
##icip
scheme
vive
pants
stellar
stard
##apes
contains
showed
consequ
tears
robb
tb
overpowered
flawed
complexity
nostalgic
##match
pac
critic
sneak
held
email
optimised
network
sink
science
##outh
##urally
coup
login
##eth
pirates
um
unop
placed
towers
stan
blown
remains
##ration
screaming
banning
gay
snow
tradition
##bes
opened
siege
manager
corrupt
##thm
##ational
neut
basics
##ico
adult
titan
humans
managing
instruct
standards
##community
notes
discovered
profit
annoyed
picture
rally
motiv
perman
liking
specif
tour
solutions
dishonored
zo
spectac
##zzzz
23
maker
improving
info
follows
del
superior
##ghz
##ante
sheer
soo
miami
lackluster
##city
##une
49
beg
fullscreen
elect
brief
succeed
##forms
population
##hips
coaster
disappear
mans
testing
spikes
attacking
appealing
##vo
afraid
developing
##rend
fest
names
mountain
grid
favorites
infu
##apping
eh
animal
pit
thir
backst
ppl
dropping
##uit
stated
strength
news
ko
##olished
gmod
careful
leads
steamcommunity
##asc
##urg
##vvvv
behavi
##icks
letting
sac
qual
stone
introduction
upgraded
entry
trigger
meg
package
dm
##iction
f2p
significant
ow
##my
infuri
cro
##izz
yester
gift
attacked
destroying
hotline
##reg
ranks
dash
##dies
##xx
restrict
crime
obstac
dice
awe
commands
##00k
swear
assume
plag
determ
##nse
unresp
benef
combine
cell
##order
##breaking
scare
climb
provided
unpolished
term
thief
##abled
began
credits
##kt
ang
judge
according
quake
acceptable
##aff
elsewhere
assault
pushing
crow
curren
regul
empires
worthless
rainbow
pistol
queue
received
timing
vall
silent
conquer
unoptim
unac
occur
980
##ched
incons
starter
##fied
2018
inn
pressing
##val
riddled
slower
reached
hitboxes
presented
##jo
meaningful
uninteresting
interactions
dwar
vir
award
cares
nights
##iful
north
jer
##ounds
completly
8gb
##bot
companies
voices
deb
##asure
surely
himself
pil
##acks
delivers
modded
immense
##station
atro
hesit
##asp
decade
crush
##rrrrrrrr
capcom
gravity
upgrading
strategies
routes
arms
tense
ported
##rive
dump
mobs
salt
cit
spawns
pleasure
studi
daily
##word
killers
unlim
stanley
threw
downs
unresponsive
thinks
previously
cand
solved
ash
##fill
legendary
repeatedly
somebody
cliff
attached
neutral
boom
unins
separ
heists
joined
detection
soldier
##ievable
roam
spawned
opponent
artstyle
##icop
bitch
towns
virtual
##ceptable
checked
##iiiiiiii
##va
videog
entertained
obliv
##mly
##airs
windowed
##pers
gimm
ener
explained
##ring
##code
bringing
disgusting
stor
teen
goddam
site
react
horrend
increasing
hearing
2012
spawning
radio
##arsh
drink
##stein
uninsp
rail
##ada
bluehole
positives
bf
rhy
sym
firstly
helicop
touching
sole
navigate
##ana
addons
communication
assets
female
valley
##anging
supplies
purely
scrolling
enviro
yesterday
refuse
technology
irritating
instructions
halfway
30fps
troll
dissapointing
summary
afford
consists
##und
suffer
grim
gaben
captiv
gud
hadn
daybreak
##ffff
mysterious
unlimited
concer
eating
##antic
emph
groups
armies
##64
fet
mates
imagination
closer
credit
throws
calling
justify
tales
trucks
portion
instance
matters
currency
##la
##pped
advise
##lex
historical
cyber
##ev
kicking
vary
curs
hiding
cloth
destruction
loop
ol
plague
specifically
lied
##pass
playstation
##asty
wolfen
domin
whoever
encounters
##4d
captain
##fight
dragons
##2w
mouth
jes
rising
##bor
explanation
magn
##mmer
spare
jumped
studios
4k
express
pictures
##hhhhhhhhhhhhhhhh
##othing
##ening
volume
cough
hex
connected
justice
150
dozen
si
crying
parent
platforms
rely
creates
4th
veri
guards
hints
esque
virtually
pulled
grief
phenomen
negatives
pleasant
quirky
delivered
village
cake
##lict
goty
digital
rag
##naut
understanding
tone
mindless
coh
mort
##arted
beauty
##els
prices
##pet
verd
##ldr
##orter
truely
underw
infuriating
swim
installing
web
intention
jumpsc
dar
tbh
dozens
audience
unacceptable
gas
laser
horrif
boat
kidding
##inations
trolls
subject
unnecess
lone
ace
hordes
ms
aggr
reflect
stronger
troub
brothers
roleplay
slugg
maintain
oblivion
jet
spread
ports
pew
unint
clan
excite
##mon
95
emphas
##ute
pig
monot
opportunity
##gen
playstyle
trap
l4d
colorful
dread
roughly
eggs
##aled
granted
hungry
playthroughs
rubber
law
vision
variation
charging
perm
shadows
repetetive
surviving
figuring
aesthet
halo
##iders
manual
netcode
posted
##ils
emotions
remote
bans
microman
opponents
funn
compon
absolutly
punishing
##pected
organ
bang
##ahahahah
##hem
sid
climbing
fleet
##ateg
rolling
horde
blah
indu
sorts
moba
##otic
40k
unrealistic
traditional
paint
overh
##ury
stock
blat
degree
phil
##fortable
functional
atrocious
rated
accounts
##grounds
youn
##aught
scope
thi
mere
argu
diffrent
orcs
browser
weight
mega
assassins
stays
definitly
freak
90s
sluggish
categ
nes
actu
triple
idiots
respons
intellig
sensit
comedy
deathmatch
##imed
narration
wolfenstein
##stick
outl
cring
disaster
critical
brid
fasc
tea
amnes
abys
laughing
cinematic
diplomacy
disp
controlling
discl
##rant
##izes
cheesy
profess
pill
##ket
leading
client
##tes
engineers
##atisf
girlf
disappoint
floating
harsh
rise
##mal
29
shel
regularly
satisfied
##orce
insult
##inal
profile
##kkkk
chicken
mc
diversity
gut
handful
##build
woman
gripe
processor
successful
states
amusing
morning
jogo
fed
fif
optimisation
dual
oct
stations
slime
attract
simulators
dimens
tip
messing
plant
chances
acce
millions
fash
optional
nuke
disli
mal
recomended
lovers
##agger
coold
guides
announced
axe
finger
cook
walkthrough
suic
depends
reminded
blew
spectacular
girlfriend
satisfaction
headshot
##agers
fancy
wallet
hyper
cursor
tha
hp
strang
underst
cow
younger
27
spook
programming
blows
themes
plants
attempting
##gar
##itty
##apers
joining
folks
amnesia
xen
guar
phenomenal
ther
##irth
misle
pushed
##ffic
##necting
##iday
political
supply
nowad
##beit
cooldown
vague
realised
##ott
fence
visit
opposite
natural
regarding
los
maximum
microsoft
cock
darkness
effective
disconnected
relationship
fuel
drill
energy
plagued
##eroid
##arting
##wo
26
choppy
film
goddamn
combines
replayable
55
##fuck
violence
##inating
movements
hunger
nonsense
offered
tldr
simpli
albeit
delight
wins
##iw
excitement
sooooo
fashion
28
stom
##inds
crawl
dx
legacy
##vi
glory
touched
apocalypse
culture
aka
nar
##aph
amm
ordered
vibe
nowadays
manually
slop
rule
vn
adapt
ssd
remin
continued
jesus
preorder
##ugs
##essive
sensitivity
##iance
opens
format
naked
bastion
everyday
functions
greater
payne
nail
reviewers
blame
christmas
##wall
prompt
##inary
gods
colour
dealing
skirm
comic
##acked
##ader
shape
transport
thousand
terrifying
kicks
unoptimized
bound
decides
##reme
walked
fov
sequences
##30
##outs
holes
sequence
##otyp
seat
tested
##ened
blank
impressions
pal
dissapointment
mild
automatically
circle
simcity
weather
ect
ker
scaven
stron
##cting
trilogy
secur
subm
##arts
begining
##cccc
animated
##zen
##actic
easter
gef
redee
returned
launching
autos
desert
##lled
handed
tension
ens
##yyyyyyyy
##12
controlls
limits
ez
##och
horrendous
ot
##bling
myth
landing
butter
stret
decl
bran
skirmish
##ature
backwards
lara
famous
unus
commit
playability
##fix
demons
poop
nazi
veteran
worthwhile
experiencing
haha
subnaut
recomm
##atics
reven
torch
thrilling
hl
cops
duke
##gggggggg
patient
reli
ful
helping
salty
technically
kings
tricky
apocalyptic
boun
##iven
crus
importantly
creature
jobs
warm
construct
clues
clothes
replace
subnautica
america
dry
##locks
flawless
wreck
##ember
begins
desire
listed
hol
cheated
scream
unlocking
wasteland
fx
replaying
curious
fuckin
deeply
ao
citiz
emul
cking
chest
startup
landscape
uninspired
father
exists
colony
disable
optimize
desired
##ipe
admin
tear
luckily
failing
firing
painfully
actors
switching
structure
heal
##ement
incor
translation
bee
phase
restarting
##8888
##fire
beats
fallen
capable
##urning
insurg
##000
status
##ology
##yl
cloud
stal
##hn
##erv
fleshed
##oted
geforce
mes
graf
horrid
unexpected
1070
golden
accidentally
##v1
slaughter
paste
##fl
removing
sr
cru
120
ts
spots
glitched
usd
additions
advertising
ain
minus
fna
adorable
dota
lying
angle
pleasing
hurts
##gers
dialogues
grabbing
percent
resolved
por
##eration
##ita
enth
bald
hud
arpg
parable
dece
customizable
hearts
##vern
cycle
reinstalled
##mers
comparing
honor
swords
ddr
brit
combinations
improves
wipe
##ounding
easiest
##enced
fake
infect
expert
obstacles
reminis
stam
##ghold
chase
consistently
stardew
underwater
acces
password
span
kot
shared
yours
overrated
defence
steering
##ture
scripted
anticip
sean
reaction
effectively
hmm
##ops
refunding
capital
rhythm
golf
glorious
youll
zoom
stronghold
##inity
grip
dating
##cient
quar
##hot
fond
fnaf
thread
shorter
investig
obtain
##ropri
tame
champ
adren
camping
novels
precise
bones
jason
extremly
immersed
tips
##inc
awp
spooky
alert
consequences
##table
nec
##room
oy
unfortunate
thier
##che
highlight
refunds
described
evolved
bash
conflict
maxed
sports
relig
headache
basicly
ic
mgs
represent
recoil
sli
##ba
##acking
limbo
essential
anytime
reviewing
marvel
##aty
lived
choosing
consuming
clum
philos
##oting
structures
nah
##ost
##wl
##atory
##ito
##izations
differences
vib
fooled
##nament
apply
rouge
##usi
versus
##xious
##ethe
##aping
legends
##lolo
##ilty
differently
lasted
distur
finds
devil
checkpoints
ham
##ploy
laughs
investment
dir
unsatisf
thankfully
fourth
magical
icon
shog
stealing
supreme
alter
##iel
stutters
football
engage
detective
significantly
##uration
terrorist
##ties
forgotten
shout
reported
tropico
##aman
fanboy
##je
edges
blocking
nation
wiz
shar
loses
ignored
##force
misleading
fox
consistent
involves
dreams
backstory
lif
grad
genius
indep
cosmetic
applic
pool
cris
security
stopping
milk
spray
crawler
##ton
powered
backgrounds
accuracy
fishing
sle
shogun
##essed
ubi
tweaks
67
##nite
proud
wandering
buddy
bleed
##mark
##rate
largely
##ooo
##roll
trains
drunk
smoother
adrenal
##cut
inex
legs
cliche
repeating
jan
##aries
##otes
planned
illeg
insurgency
##inking
##urs
flav
worms
method
##ext
##phone
shoots
alternative
philosop
etern
themed
newest
##coming
inducing
artistic
enviroment
directions
enix
##dddddddddddddddd
##hold
tournament
fatal
##yr
amazed
passion
wallp
wes
fanbase
##stop
shines
returning
solar
simplic
islands
strat
basis
ry
assum
refuses
800
##wr
chess
makers
meta
##ov
##inks
recover
ghosts
warriors
angles
rp
concerned
600
staff
quiet
exclus
distinct
microtransaction
settle
kickstar
implementation
revis
glance
timer
soooo
march
captivating
bird
theory
supports
intresting
bay
seven
##icial
drain
miles
sus
addressed
enthusi
59
eq
existing
cooper
replaced
demanding
wonderfully
joystick
exploit
gimmick
origins
clicked
disclaim
##lished
##ince
uninstalling
grown
downright
nonethe
royal
sloppy
ancient
seek
allies
channel
##ob
actively
extent
member
compatible
##idence
2011
##holes
toler
guild
rapt
scar
gothic
aids
rediculous
wiped
liber
exceed
suspense
anger
existent
nonetheless
proof
possibility
alike
##games
##ye
simplicity
slay
tad
hammer
warn
women
pray
marketing
fs
cheese
products
##cise
pla
cried
til
underwhelming
smoke
minigames
gamemode
##hr
mental
sister
fren
spamming
decently
severe
subtle
andro
evolve
patterns
sen
##ulus
##ura
scum
##atio
unnecessary
lately
itch
hats
##ience
glass
util
##ibles
##ado
dif
rates
flip
operators
##dit
reflex
parents
##ierd
riding
69
overhyp
nuclear
##llllllll
inconsistent
clumsy
m8
crate
twin
shell
remotely
sticks
cease
west
aimbot
traffic
disclaimer
##tedly
##igning
##istics
fundament
stayed
crim
operation
violent
produce
lik
innoc
lic
##forward
##anded
##lux
##atable
stability
soundtracks
logical
ou
##nal
##endo
extensive
dosent
shelter
ber
unlocks
dive
kickstarter
budd
##astically
##taking
univers
carefully
bandits
monoton
pcs
backtrack
##tric
tricks
compatibility
identical
beac
awa
twenty
ripoff
spaceship
desper
simplified
##head
fortnite
grasp
saga
revol
emphasis
##set
##icle
rendering
peoples
depart
beef
homeworld
eg
reminiscent
bun
nap
##icles
##thy
regards
lasts
skelet
native
wear
downgr
enhanced
pee
reput
castlevania
bridge
moral
explode
##mmmmmmmm
calls
relies
snes
grenade
cutting
poker
tribe
##oured
##icient
congr
grenades
employ
jed
tu
competetive
candy
##ples
sessions
downv
rendered
benefit
##wind
##imately
waster
lobbies
dwarf
rats
##arm
tax
##lied
fired
##unts
fulfill
##cry
##pan
reccomended
unintuitive
outlast
merc
receive
jumpscares
factory
wander
adrenaline
termin
naval
peer
shouldnt
raise
ost
sku
##phones
rockets
unbear
restarted
sickness
##hill
chos
consumer
arrows
dare
futur
rollerco
banished
faces
wished
blaz
attempted
desync
alternate
rebirth
dodging
discussions
grass
lesson
separate
asian
ranged
witness
##dic
##3333
influence
targets
##real
penal
context
experiance
##acle
gripping
slide
timed
device
nint
stole
mord
reso
classics
wierd
##oul
severely
division
##under
smurf
##reh
glaring
slightest
nazis
overs
engross
nic
anno
eight
wolves
##imate
asap
worried
pleased
noobs
buys
covered
dirty
afterwards
lite
vamp
plans
offering
pulling
resem
ped
rab
##pack
abuse
##ags
monkey
matched
focuses
whim
arri
depressing
letter
increased
turd
primary
conversations
micromanage
asks
lover
rifles
distr
##ender
shovel
##asting
thru
calm
rin
fore
noise
recru
gems
##itter
claims
rat
vent
cance
tabletop
horiz
socc
cyberpunk
##ige
meme
seg
heres
oculus
aesthetics
bye
quote
bros
rollercoaster
orders
appropri
fascinating
##iveness
mich
monotonous
sme
ons
coins
##ran
##itar
contract
infant
fighters
category
uncom
emotion
##haul
staying
loy
transfer
suicide
sees
##ipul
##ippable
mashing
warband
physical
mate
wwii
reviewed
authent
recon
purchases
equally
tort
hah
keyb
costume
burst
steel
##ihil
##cast
##alling
shortly
carn
automatic
##nnnnnnnn
encourage
##ification
responding
published
dumbed
clut
drama
sna
mines
requiring
laid
##iled
##iii
sleeping
gfwl
overhyped
##14
toward
delux
duck
sacrif
r9
deff
underrated
wiki
mask
##ino
une
##aus
collectibles
corrupted
soccer
media
ox
disabled
fitting
overcome
sidequ
explored
acts
acqu
guessing
trend
closest
breathtaking
revenge
campain
sprites
##16
potentially
nintendo
definite
hacked
belong
##of
##eu
slap
construction
ticket
fingers
austr
necessarily
##unting
chuck
suprising
laz
##omination
ip
##lan
concern
acceler
rinse
nig
flick
massively
p2w
##lined
perfection
equal
videogame
tweaking
loyal
fate
orbit
##ici
barre
##ule
##15
mature
##aint
helicopter
roads
##eroids
##ros
chain
facing
manipul
youtubers
competit
fellow
scan
designer
##ifi
substance
streamers
answers
illegal
ny
void
countries
reputation
tes
zones
quad
coff
grey
focusing
ie
corrid
overhaul
34
##gi
##68
bush
seperate
##quels
territ
aoe
entering
western
serve
##ales
wearing
clicks
hunters
politics
wasd
rewarded
lands
austral
##brid
introduce
reinstalling
pilot
avoiding
crys
genres
definition
beginner
ease
uh
docu
glitching
froze
birth
crouch
##sle
chasing
##hours
providing
discovering
activate
fucks
former
##rench
mr
manner
flood
extr
destruct
locks
spee
remark
aircraft
rift
va
##sem
##ission
asset
flashlight
ashamed
sar
sharks
needing
reasonably
hr
##aker
memor
emotionally
competition
miser
battlegrounds
##creen
toile
cla
regist
jue
sunk
corpor
sprint
involving
delayed
unch
marines
inspir
mw
nt
assign
galactic
advertise
crawling
##taly
oyun
caut
whose
##hhh
db
unim
humanity
professional
enemys
typing
sending
yay
stud
hire
disturbing
gamebreaking
assist
customisation
treasure
burning
captures
mul
wond
beach
male
emer
achiev
torchlight
##aked
##vable
deadly
progresses
practices
jam
cripp
struggling
reduced
##mins
alas
john
newb
compete
##uuuuuuuuuuuuuuuu
solely
keeper
boredom
activities
torn
##zy
disliked
futuristic
finest
oriented
enhance
##porting
connecting
slots
couch
nations
office
fist
##zing
anal
assholes
danger
safely
##vation
afk
clich
sharp
application
surpass
rapid
prequel
guitar
corners
caves
resolutions
ofc
stiff
typically
reddit
##ylum
eager
##17
adore
ghz
farcry
phant
skilled
cancerous
chosen
il
engin
underground
hollow
storage
moo
recreat
digging
passing
stressful
##iously
reply
##ifying
procedurally
##aaa
unfold
eachother
straightforward
##boards
controlled
teammate
sneaking
assuming
unh
shadowrun
megaman
pops
frozen
##eeeeeeeeeeeeeeeeeeeeeeeeeeeeeeee
##onge
##backs
##ods
phot
isol
asylum
coding
obno
valid
suggestions
sights
blurry
taming
##ssssssssssssssss
specially
motor
nomin
engaged
honesty
##6666
abysmal
french
##ko
##aped
postal
turrets
witty
daylight
edited
educ
generator
clicker
thro
moder
racist
enorm
aint
knights
deluxe
wat
soci
russia
dmc
sf
outf
stupidly
1v1
grade
sooner
stamina
##chool
##ometric
meters
morrow
battlefront
secondly
armour
39
reaching
4gb
kat
##umed
##acky
sorta
pixelated
##asm
orion
##istor
##theless
convinced
##rees
mund
existant
crysis
##now
viking
expanded
ambient
##ooked
exploits
functionality
somthing
##ima
opinions
rex
progressing
longest
invas
jank
smile
foundation
dissapp
condition
circles
buddies
strict
synd
definitive
bombs
biome
##1080
biz
bount
memes
maze
obsc
placement
existence
officially
bust
sigh
intric
disag
##oooooooooooooooooooooooooooooooooooooooooooooooooooooooooooooooo
##360
frag
dudes
forgive
hybrid
raw
inev
morrowind
endgame
##likes
##tttttttt
outright
##attered
tablet
##fo
static
comfortable
ignoring
obnoxious
clip
resc
neigh
buyer
pock
##itect
laughed
##00000000000000000000000000000000
images
randomness
questionable
hearted
rampant
android
##rys
##ptical
steer
pulls
##alt
suits
humorous
woods
##9999999999999999
decks
nether
chee
involve
unsk
cosmetics
fable
tied
happily
messages
##scri
tremend
darks
steady
designers
examples
idle
supposedly
frust
disgr
pretend
accessible
madness
##ege
mmor
##idently
unbelievable
##inding
reloading
british
infantry
##za
stellaris
##pa
shine
eth
occup
cannib
criticism
betray
usage
spiritual
sniping
recommand
mile
##usive
happend
##buy
trine
hassle
saf
overwhelmingly
unbearable
becas
image
devol
drugs
parach
insta
summon
virus
##iri
chron
##styles
roaming
communicate
mmorpg
dan
hates
##elled
repetit
##ril
bohem
##ological
inevit
cab
tie
hence
pitch
##cul
bodies
views
refined
primarily
bam
alan
species
80s
rails
gritty
tryed
workers
artific
##works
subt
skeptical
##aves
##ols
ammount
freddy
streamer
toss
immer
hostile
century
##illion
##ama
dunno
streaming
reference
##logue
asshole
presents
innocent
##rier
seasons
latter
rolls
owning
fiction
ugh
##ained
wizard
logs
starcraft
##90k
peice
resist
flame
bread
remembered
66
expansive
recognize
immensely
##icable
##aud
medic
##lent
perk
successfully
chains
patching
ache
ist
govern
##eria
endlessly
##otion
##emy
daughter
staring
darkest
dc
##arian
##nam
##etr
diam
firewatch
premium
cringe
pages
##ears
2010
drives
suggested
conversation
kit
##card
clothing
##teen
##bye
laughable
cats
december
extended
poke
downhill
lady
##hand
mortal
suspect
toilet
cannon
unfortunatly
childish
fm
scores
meaningless
fortun
crusader
thrones
isometric
inj
headphones
draws
smashing
37
intend
definatly
tends
architect
permanently
verdict
##imin
prove
playerunk
##aken
gambling
sadd
vastly
peaceful
rade
tribes
predecessors
coupled
##asts
##abor
250
crowd
components
recieved
nerd
incompet
git
argue
pau
##oses
mixture
kore
rekt
stol
bonuses
kong
niche
dose
romance
unen
spo
leve
shitt
engines
diamond
98
##td
jedi
ios
##amm
braw
disconnects
fought
infested
becasue
bohemia
reskin
evolution
tail
descent
dynasty
pattern
aa
editing
hoi
posts
deleting
roman
##vey
annihil
fetch
toes
##mode
continuing
##fights
stro
les
##atley
props
birds
landscapes
sequels
incent
pressed
sexy
litterally
imho
existed
resulting
filed
totaly
##ashed
yep
jun
kar
indic
teleporting
blatant
randomized
qualities
desist
surf
infam
speech
rebe
seam
programs
unsatisfying
quant
teeth
##life
counting
furthermore
remaining
mirror
##arre
deciding
ps1
biased
fag
talked
radeon
bol
ratio
motivation
stolen
gad
mars
twisted
##geon
equival
surrounding
math
dance
rct
roof
f1
beside
orch
murray
germany
##olut
outs
definet
rein
##chant
hub
drug
boys
captured
behavior
##house
avat
traits
author
pleasantly
whit
mage
insan
urge
outr
suprised
hos
wil
doct
mand
##pppp
damned
returns
nerfed
disagree
##gl
orgin
friday
goods
cinematics
##iate
whom
fairy
46
1060
##wwwwwwww
inability
##alled
compens
defending
sounded
artif
drown
sidequests
acess
inferior
subscri
provo
1920
aston
conditions
authentic
storylines
imagin
redeeming
magnific
phantom
ec
chair
spider
east
heat
partner
snipers
accomplishment
juego
##ht
##zer
scient
inac
arbit
trials
resolve
##ieving
hasnt
entered
autosave
gn
weakness
flex
expanding
irl
headshots
hind
perfor
##try
variations
stairs
intent
##umber
nevertheless
owners
roguelikes
voc
buyers
infected
tiles
stere
burned
faults
enormous
##mans
toy
meter
##shell
appeared
nukem
appropriate
vert
sequal
snake
exer
trapped
warcraft
bath
pressure
undead
vault
##gets
backtracking
960
nms
awards
##leshoot
ate
lovecraft
lightning
populated
spike
oil
##wood
heaven
freinds
yellow
permanent
commentary
builders
65
mud
contribut
born
posting
wings
brown
unskippable
##een
challange
statement
meeting
baldur
disgrace
playstyles
steaming
reports
engrossing
##ku
mapping
closing
bizarre
stood
newcom
drift
throne
unfun
starters
understandable
redo
addiction
admittedly
troubleshoot
desperately
plug
traveling
explaining
produced
nuts
slimes
01
##lecting
tables
cartoony
##fr
requirement
marine
bore
taught
ambit
##iy
reall
##ads
org
headset
robbed
intelligent
territory
ven
##uto
banner
belive
tactic
blocked
bars
comunity
##usion
cuts
squads
understood
r8
scott
additionally
equivalent
spore
retail
##aaaaaaaaaaaaaaaaaaaaaaaaaaaaaaaaaaaaaaaaaaaaaaaaaaaaaaaaaaaaaaaa
shi
mordor
##rors
##aha
skylines
appearance
kerbal
upload
beggin
##files
clipping
refused
screwing
700
aqu
opposed
approx
##rome
dur
matching
visible
porn
stealthy
ring
poison
literal
directx
merely
rings
chased
##ersome
frustratingly
floors
para
##1111
darn
unw
mana
nutshell
arbitr
das
yor
speedrun
mildly
tack
perma
irre
reflexes
oo
sore
abit
values
gtx9
discussion
pumping
##enses
batter
picks
invite
barb
switched
suffering
thou
whe
upcoming
##antee
pand
##edge
tearing
simult
dise
gamplay
repetition
discovery
legal
masoch
##nds
##asa
trough
geome
ragdo
yu
##zes
disk
facebook
freakin
healing
launches
masks
circum
##umble
wheels
idiotic
icons
oxy
pour
overlay
seriousness
novelty
33
##erates
shite
emb
dre
##ieves
bg
ht
nit
bounty
##enc
horrific
dynamics
bc
discounted
janky
##anked
cens
pity
pair
wing
weekly
##yc
sugar
pric
mk
teh
interst
forgettable
configuration
##post
peak
bike
drawing
closes
tweak
rescue
preview
yelling
dinner
brutally
##uff
##24
elev
##uary
sav
serves
needless
espec
chests
cargo
ignor
chaotic
pixels
limitations
orchest
folder
inh
runner
ideal
personalities
##vvvvvvvv
##oly
##eness
sinc
exceptional
casually
kotor
sized
lonely
actualy
wonders
fab
##ique
##pit
ars
suprisingly
hanging
june
##25
iteration
brick
##bbbb
spy
modder
artist
harm
inch
tracking
##esyesy
ack
##bi
skipped
companions
likeable
college
naturally
nov
letdown
##isons
devices
confirm
2008
spinning
playerunknown
shiny
hip
wears
##ombat
dub
deserved
unsure
aweful
##earing
knocked
princess
placing
waist
discour
freem
sites
downsides
unclear
absolutley
surprises
biow
murdered
sticking
afric
##adeath
##oying
##ipes
collision
activision
conquest
##icheat
pigs
qte
coupon
inspiration
36
##not
##ptions
badge
walks
boobs
unpred
arguably
unoff
coord
spoiled
sentence
streets
2004
assas
concent
oxygen
48
##iqu
becouse
oddly
booted
publishers
slog
##onic
handled
adventur
terrorists
skull
lma
slug
eaten
rushing
##hal
developement
warp
sucker
gladly
goofy
geometry
handles
featuring
skipping
relevant
curse
precision
shields
ffs
##iep
thrust
paywall
##balls
miner
department
april
teaches
luc
##ara
communities
speaks
micromanagement
bin
raging
##ior
height
drinking
starvation
unusual
tap
extend
rolled
appreciated
navigation
reduce
wel
pod
array
clocked
##zzzzzzzz
revisit
##ila
prone
grabbed
##whelmed
nails
goodness
roots
puzzler
punished
sanity
sharedfiles
subtit
nex
##leep
divinity
reveiw
abrupt
2005
disapointing
gaun
##ifications
shm
gui
avid
european
ng
achieved
transition
sidesc
amate
stranded
immerse
##acity
bench
gfx
##keys
slot
parry
companion
logging
odds
lengthy
ears
##18
recomme
roles
secondary
cube
pink
##asant
locking
flavor
bone
##agin
grapp
impl
achive
connections
##redi
unle
##tlet
hog
flawlessly
##70k
kon
mart
nause
improv
avo
announce
intricate
filedet
##ban
poly
desperate
humble
transistor
gigs
dy
##c3
##arn
bul
p2p
##13
lil
increases
district
princi
lau
meier
filedetails
nud
deer
ads
eternity
lee
trave
borderline
shocked
frig
principle
##atural
##osition
##utes
##together
mute
##owed
factors
passes
bioware
lmao
##iation
##oomed
downfall
screams
gears
splinter
ni
##friend
shotguns
racer
axis
verry
filter
provoking
lords
rend
##urate
##ody
relic
##ressed
rebind
79
stumb
nep
##loved
decay
beginners
popping
ratings
##otype
orc
wai
##rub
methods
hating
ray
delic
victim
rubberband
##44
styled
shoddy
swimming
lean
wishlist
##hard
scari
vsync
quarter
alley
feb
breaker
monitors
ambience
ini
stack
grows
artill
procedural
faced
sorted
registration
kombat
asia
prologue
outta
misses
flop
broad
counts
720
##ees
##bble
##kind
ade
potions
cham
agent
huh
colours
trek
depression
##rrrrrrrrrrrrrrrr
##building
ctr
##eted
spel
astounding
lasers
mel
##urf
steampunk
##don
##isms
scaling
##anger
footage
roleplaying
vibrant
vampire
sits
uk
##gain
##ata
10x
roster
keen
permadeath
assem
unav
##aneously
layer
##iiiiiiiiiiiiiiii
gent
villagers
encourages
weaponry
leaders
roo
revel
shits
hover
floaty
fee
wii
##ialy
satan
alongside
latency
##anteed
astonishing
##hi
prett
unlockable
mountains
fog
destroys
competent
raised
integrated
stalker
definetely
wield
##field
shake
##ession
orange
##joyable
decre
meanwhile
thirty
vice
##rial
viable
bags
riv
##opes
starving
signs
##roph
surreal
audios
incorpor
##hack
gog
overc
designing
distract
recruit
cluster
priority
##ivalry
bree
barr
##tg
regrets
mutants
government
uber
lift
attitude
nearby
sexual
dramatic
ets
polishing
passive
downgrade
obscure
allot
listened
koj
increasingly
mechanically
messy
sensitive
##stri
##mented
##grap
viet
ceiling
absor
minigame
symbo
2gb
85
wacky
sto
gtav
dimensional
incentive
5th
83
nasty
continually
strikes
scrap
uncover
guarantee
naruto
##orse
accomplished
independ
dificult
77
elabor
creep
akin
e3
##col
##cher
attribut
suggestion
attractive
grappling
44
##lar
label
surrounded
hosp
lis
mb
##qq
trump
##ictional
1440
degrees
someday
pleth
depl
throwback
##night
##verted
creations
requir
admins
introduces
shady
manag
contents
planetary
searched
convolut
trench
##urch
recording
pretent
##ship
rly
purple
streamlined
tent
parties
wrapped
purs
##ievably
cared
##vs
##ett
introducing
quirks
arts
##place
forgiving
magnificent
hospital
spiel
grat
minions
drove
crossh
divided
crisp
convoluted
##ael
valu
##axis
2009
ladder
artifact
vist
intensive
rude
bindings
##ffffffff
preordered
citizens
g2
gee
##iplayer
andre
mechanism
daddy
##bles
##erie
##asters
criminal
f4
rant
wire
##fg
ein
genoc
nonex
##hical
ange
chare
progressed
gauntlet
ctrl
nove
triv
tile
##erial
confir
gadgets
goodbye
guilty
railro
exercise
asleep
##ivable
##abe
wargame
owner
layers
goog
champions
bly
wet
stil
##etime
ord
armed
realm
foes
portray
##abilities
rw
##ourse
galore
##haust
ingredi
oldschool
circumst
##ria
alm
coast
lacked
squee
efforts
geared
relationships
veterans
bac
anticheat
haz
##wel
ranging
##print
bargain
outcomes
determined
##bile
##x1080
explains
engineer
painting
js
##istant
expectation
predator
operating
fsx
biomes
420
bend
society
cumb
kart
beer
mechanical
exhaust
insulting
retard
coffee
##cend
projects
ambitious
nasa
##urai
controler
lasting
sincere
cous
evening
contem
revolves
dism
##aches
caring
selected
catchy
voiced
##hhhhhhhhhhhhhhhhhhhhhhhhhhhhhhhh
cooperative
regen
geralt
chivalry
civilizations
minimalistic
amongst
napole
38
ja
##mit
rim
swap
sony
execute
unbelievably
aggressive
gw
gard
##lin
##inum
##onia
beam
##eee
discon
drew
pizz
tops
alliance
periods
affects
##iac
afterno
##ction
cunts
##ggle
indication
filler
2007
avatar
enable
outpost
realizing
lifeless
titans
citizen
bom
##rie
recieve
compelled
##herent
villain
##att
##icked
sett
cure
enabled
happiness
styl
samurai
atl
letters
infact
occasion
rotate
##gir
compreh
##auts
stripped
##kkkkkkkk
pretentious
31
papers
##isions
exiting
slam
generations
bears
nova
speeds
airport
exclusive
od
abund
destiny
narrow
gained
strangers
wides
##pm
inb
##lude
cumbersome
exited
atari
talks
duo
spoiling
central
redund
kojima
kf
##arms
logo
noises
landed
detected
michael
fk
##gant
brave
spelling
demands
punching
ksp
believable
strongest
paradise
shocking
billion
annihilation
recipe
prey
activity
reporting
##erno
cyka
skeleton
artillery
aid
##zone
##ando
acted
##ucky
prevents
bareb
revolutionary
##wire
forms
##rod
shr
whereas
multip
hella
panic
fires
pricing
mighty
heros
talent
subpar
essence
##ablished
adults
varying
neck
stylish
aval
detract
gripes
sarc
chal
insert
andreas
cache
xl
##ann
altogether
annoyance
replayed
griefers
poe
portals
unofficial
##ppy
terrific
py
clones
##azz
hl2
isolation
fagg
recall
weaker
trolling
comparable
rou
##amped
fuc
camer
breed
convince
artificial
avoided
gall
zen
pains
amateur
scattered
##ception
pisses
asso
clar
survived
established
sends
mythology
6700k
ken
##arse
france
2006
acceleration
achievments
finn
boats
2x
satisfy
continuation
wooden
##cccccccc
arsen
beloved
downvote
plethora
gramm
interrupt
substant
costumes
compr
helicopters
mundane
##mind
exh
usa
disad
##zzy
topic
director
environmental
milking
ww1
intrigued
contrast
torture
unpredictable
nine
sir
##den
forem
combining
optimal
civ5
##aze
bugg
insight
exploding
genocide
pas
##orted
deffin
fortunately
##rit
shove
reconnect
glich
joking
excelent
answered
baked
invasion
drastically
tests
framerates
shoes
workar
##borne
waifu
bowl
pistols
outrage
psychological
rides
##65
##oned
requesting
precious
swinging
guaranteed
coin
rights
touches
quitting
cartoonish
mysteries
afternoon
##itech
disgu
macbook
##points
prisoners
gigantic
mercen
recyc
scor
belief
hesitate
fanboys
jew
##itting
garage
depressed
stretch
foremost
vox
thx
bait
reveal
analog
arbitrary
orchestra
pale
##uvo
##34
##ouls
##itz
grave
interacting
marks
automated
carrying
funniest
##rain
##stone
intens
##abling
dank
regions
aug
scammed
component
tall
##uing
vein
compliment
puns
surroundings
##sion
anoying
sport
snap
continuously
factorio
videogames
revive
illusion
queen
##cube
##mesis
pul
enthr
modify
basement
civs
##bbing
pacif
carnage
##32
determine
gru
##pted
lagg
garrys
scroller
ore
reh
multitude
entr
winner
dreadful
wallpaper
insanity
##98
##rous
##ulous
homage
ki
##ualy
youve
##str
##estation
spac
assed
platinum
bond
gory
tir
##ca
overview
farther
slows
depths
mentioning
stomach
m4
proves
asteroids
opportunities
bunny
unenjoyable
##urt
discord
installments
youtuber
collectables
incomp
judging
punishment
scavenging
fer
ridden
wrest
flatout
doctor
disadvant
nemesis
spark
defined
overlook
segments
acknow
##ronic
victor
restricted
associ
vul
##lers
pickup
wildcard
beggining
jail
##c2
stating
gran
incon
hugely
carried
brilliantly
##father
flies
##fun
wash
jog
orginal
##uts
reverse
similarities
restarts
powerups
dragged
pathf
crossing
##fact
cher
convey
sums
##nels
affected
parachute
##anged
noir
simpler
retry
accompan
chickens
rapidly
requirments
ml
stare
crushing
clips
imposs
3000
prince
nonsens
recommened
900
##ok
##ym
monthly
gearbox
cells
denuvo
hay
##gt
##bits
decor
awesomeness
parody
74
punk
charged
##beat
##locked
minds
raiding
delivering
interview
entirety
marked
intelligence
congrat
ttt
##gur
##ae
slick
income
entries
august
occasions
tempor
suitable
july
l4d2
repub
helmet
fills
esther
nominated
cors
##hu
selecting
joins
octo
november
##ivers
maneu
functioning
laws
mesa
arsenal
##rp
##eng
particip
prototype
predict
splash
fleets
chunk
lovable
freely
dress
drones
originals
dialogs
economic
gentle
fand
##oop
fewer
bru
disapointment
rape
##isters
primal
hesitant
crushed
##ald
##rix
conan
emper
calcul
throat
ine
muito
gra
sail
definit
collected
strengths
holiday
subtitles
shower
spear
greatness
grace
tune
raped
ingredients
outwe
actor
charact
interp
episodic
activation
river
beefy
elaborate
kb
kin
pi
##quate
raising
navigating
cookie
wound
wether
shortcut
gta5
universal
incompetent
fidd
evo
films
dosen
lifetime
og
conce
punishes
remarkable
##icious
##storm
grain
yell
noticeable
crops
mandatory
audiosurf
eerie
tig
quack
connectivity
##aver
baseball
infinity
##hol
hallow
dire
partially
autistic
weakest
services
charec
gross
##hd
xbox360
hosting
explosive
thirst
cannibals
ech
bla
phr
languages
defenders
hitler
coded
verdun
pokemon
rubberbanding
##3d
##ressive
exceptionally
frontier
tunnel
october
hen
proven
flashy
bite
logitech
claiming
gradually
porting
##len
dean
spiders
nailed
##ancy
suited
firaxis
brains
elimin
##gggggggggggggggg
mulit
simultaneously
wb
##lim
frantic
preface
decades
pirated
refresh
4790k
paired
barrel
pocket
valuable
mg
##eared
rebel
accidently
dialouge
croft
lun
##agr
steampowered
delivery
journal
inspiring
consumers
technolog
blazing
uncomfortable
pounds
##dlc
retain
haunting
paran
momentum
gaem
contacted
extras
lem
arse
genes
drifting
corps
evidence
strangely
fking
thick
unor
excessive
invinc
##balance
paly
defen
deals
recommed
orig
infinitely
hilariously
faithful
timeless
bandit
claimed
tremendous
sant
scout
instances
treated
newcomers
gap
warrant
overlooked
troubleshooting
vietnam
dict
gamecube
analy
exagger
heading
##cience
popularity
crucial
wallpapers
contracts
irrele
conse
gobl
disreg
slapped
pointed
caps
##worthy
republic
sells
mayhem
sins
january
ward
comics
simil
babies
succes
tropes
ensure
180
dav
##cers
sov
challanging
laying
magick
penalty
inacc
redundant
sept
gro
kos
n64
vc
inner
lagged
archers
ledge
document
barebones
bb
##icky
installation
1440p
theyre
furi
teenagers
##rum
clans
dieing
quicker
flew
philosophy
caution
##osity
colonists
pricet
##idian
hobb
relate
blyat
750
vom
##hor
asus
someth
headed
pushes
boots
ambiance
mentally
##ido
robbing
980ti
threads
nonsensical
emperor
belt
musical
cannons
bothers
corpse
explosion
##wa
##tered
##istically
resets
apple
fields
cunt
nba
controvers
relive
efficient
relaxed
scratched
confirmed
beut
gr8
slice
glowing
earning
sucking
blueprint
pathing
facial
protection
physically
imagined
ambush
##37
##orrow
##ece
adap
##2win
hm
slider
struggles
pizza
kud
##vity
ally
fantas
##loaded
dragging
magaz
720p
jus
lotr
applied
darker
mixing
programmed
mercy
glorified
verify
fow
x3
sha
bankrupt
bump
ware
moneys
largest
sched
pillars
scarce
mig
##fect
##wal
modd
troubles
##dog
redux
delightful
circumstances
aimed
hic
codem
sector
pricetag
42
##map
seeking
lethal
cleared
apolog
legitimately
beacuse
stereotyp
##iques
meas
tastes
branching
pets
##ools
switches
advantages
sacred
pacifist
nept
alth
##imp
spaz
taket
consume
randoms
dissapoint
denied
electric
intentionally
##fly
198
misc
##ahahahahahahahah
slender
hul
reign
crpg
##dlcdlc
##v2
##rol
campers
retards
transaction
removes
growth
struggled
intrigue
bounce
disease
reale
spring
nerves
##yyyyyyyyyyyyyyyy
##88888888
travelling
qui
templ
derank
decept
##strike
rope
wondered
investing
jerk
clancy
ddr3
cousin
congratul
taketwo
##ene
spite
evry
filling
miserable
occupied
indul
neighb
##inated
primitive
asses
opposing
cruel
responsible
religion
pay2win
capabilities
suffered
tomorrow
rwby
02
dips
##abs
2033
complained
minimalist
educational
##kee
mais
coz
teamkill
limitless
sanct
embarr
##nce
abst
transform
extraord
proceeded
furn
##uate
##fa
melt
reviewer
fastest
sincerely
##ghten
quits
beatiful
grindfest
tripwire
anticipated
soviet
mit
##ji
exile
annoyances
consideration
showc
sacrifice
rt
##uous
weaknesses
magicka
wast
clo
codes
edgy
assumed
defeated
horrifying
kidd
##any
neon
twitter
talos
castles
sque
wep
basket
bitter
satur
fluent
calming
preventing
license
outweigh
shapes
facts
fairness
temper
jrpgs
sence
conven
mankind
wishing
trey
tuning
##rops
unple
cooler
bob
nuff
gabe
kudos
tin
mol
trag
blasting
optimizing
passable
assembly
pie
eastern
##plan
ffx
shmup
tink
##char
monet
descriptions
##lity
##esty
arrive
##ugged
brainer
1999
sneaky
incorrect
outfits
bout
fustr
rival
tm
ves
wine
defensive
2003
thriller
1990
beasts
bleeding
lunch
lake
duel
crystal
recorded
halloween
ka
pound
sheep
heaps
throught
turret
operator
revealed
prompts
yourselves
##agged
pointing
layouts
pumped
colourful
levelling
irrelevant
04
lud
pm
##iable
gamble
redown
fifteen
spelunky
soothing
dope
favourites
targeting
##step
labor
united
spades
##aby
conscience
originality
extream
##aws
aimlessly
innovation
spaceships
##long
bell
##omy
##una
plots
battling
cooking
##steps
submit
##ervice
cameras
##sters
##mobile
underne
president
144
baff
translated
leaderboards
emulator
philosophical
##dr
noone
healthy
behaviour
australia
cabin
sorely
mow
spa
distant
wildlife
luster
##mint
damaged
uncle
clash
communic
verif
hood
##bid
##47
##agle
study
pays
generate
godus
buffs
ets2
trivial
cus
crude
wilder
nudity
deploy
ich
##agn
unlikely
indepth
##erve
diving
oversh
grabs
punched
havn
dimension
##ml
addon
strip
drags
1920x1080
defenses
mush
challenged
downloads
lowered
bastard
##33333333
clement
flashing
immediatly
hatred
voxel
absolution
unlockables
protest
hostage
nightmares
09
ly
reactions
deliber
zeds
generous
brotherhood
dmg
03
puss
##vin
rebuild
rewr
##omor
upside
##ivly
newly
commer
regretted
eu4
capturing
hurry
cleaning
pathfinding
underneath
##wing
sailing
panel
inputs
nicer
nexus
widescreen
dum
##pir
frick
flipping
obsessed
grafics
##fty
##tion
begging
inhab
##ios
comfort
stagger
similiar
flour
woke
mastered
colored
dealt
summar
silence
mutant
fundamental
wilderness
hect
habit
measure
grate
rect
immediate
birthday
lous
writer
officer
tuned
##dddddddddddddddddddddddddddddddd
corridors
reck
sher
mail
leap
##agy
##grab
historically
##cles
covers
boils
140
boosts
acheive
rimworld
kiss
tis
tetr
##lord
##igs
loosing
superf
disappeared
preferred
unlucky
exept
submar
gh
woo
rea
alice
explorer
capacity
copied
aggrav
rum
zup
backpack
breathing
suprise
centered
lightsab
##itor
contra
prest
pricey
gladi
reaches
drawback
06
##fish
##cape
##ution
##etween
backed
finaly
persist
hooks
incoming
crosshair
jk
noted
##rolling
serial
absol
##working
wann
bastards
motorcy
abstract
##maker
##quis
todays
funding
reliable
pasted
rotten
vid
##jw
tiresome
##gency
##inate
archer
triggered
kingdoms
curiosity
hexagon
strictly
konami
friggin
t2
whatnot
awfully
##assing
##dder
coolest
clearing
obsidian
##vet
enr
##udo
managment
##mental
moderate
interf
franchises
jim
mesh
ov
##anics
##imul
acid
amig
overwhelmed
##veloped
hunted
europa
hus
owe
sparse
##pper
brake
grandfather
raided
artifacts
##iversary
nfs
pow
##figh
multiplay
##ooooo
relative
genesis
ipad
whis
theirs
breach
limiting
featured
screenshot
matrix
representation
tetris
nur
manu
##asses
gaining
dominate
rapture
disregard
##llo
##kai
##nday
##raw
civilians
operations
##bad
##yi
mexic
##phead
hung
oblig
dystop
lousy
faint
rs
##oral
##actory
crashers
distribut
##rock
drone
hearth
linked
routine
experince
crimefest
obstacle
msi
rabbit
clementine
sak
rigs
accurately
mansion
wher
##open
personaly
cuphead
sprite
catching
dicks
policies
delicious
gates
gord
##35
leak
guid
loadout
destination
780
soph
##assic
infestation
giants
frighten
constructed
gender
##stream
abomination
##liest
bunk
jur
##yo
deve
##assed
bl2
##boxes
invade
hyd
greenlight
cockpit
unhappy
ripping
##onts
iffy
clap
mixes
watered
boyc
magically
unusable
revolver
hectic
devel
expands
smallest
bottle
capped
##lete
##sec
develops
lucas
foward
##ules
craz
bra
1600
glados
nerve
raft
##llllllllllllllll
arrived
chuckle
pes
tt
##ype
lastly
##going
kidn
mistaken
dedication
cliffh
grammar
longe
nigh
##ioned
##opers
flows
tdm
flickering
inbetween
recycled
eats
lyn
pony
everyones
terri
anniversary
namely
##00000
streams
stumbled
toaster
##unks
scavenge
ofcourse
dissappointed
##xi
overd
quid
missiles
engineering
ddr4
student
nich
sided
wen
##lying
##oms
locom
ama
comming
##oooooo
lesser
swarm
alienware
preference
risen
estab
corridor
tou
##born
##ador
##ille
coun
murdering
haters
vertical
##reed
esports
reads
32gb
codemasters
tam
##opath
wrap
ragequ
wildly
configure
benefits
shining
settl
shortcom
supergi
progressively
cert
aesthetically
korean
ditch
##anking
remap
positions
nonstop
dbz
ordinary
alb
superhot
shuts
##ominal
extreamly
1k
lane
mim
rent
whos
lond
##active
confident
spotted
villages
purposes
1998
41
lam
##mith
##aters
inher
seper
friendship
bashing
jungle
cater
iw
pipe
rx
baddies
unfriend
declare
raz
mos
sliding
performing
photos
font
##kl
##auge
##ruption
astron
deny
substantial
gm
nom
nick
##iter
noth
mak
spice
thoughtful
hopeful
##overse
foreign
ragdoll
fabulous
jsut
shortcomings
fruit
generals
110
germans
experimental
settlement
sust
##mates
sharing
adop
take2
batmobile
##ifies
##tuse
barren
completionist
homm
iconic
cth
hong
##gent
##alid
css
nose
straw
psp
penis
blocky
crossed
hangs
footsteps
radar
cracked
supergiant
sans
vital
##anny
##idal
##oped
mechs
obtuse
assure
relent
equipped
funds
attachments
mmos
toys
steams
freelan
maintaining
belongs
infamous
##tingu
difer
bandw
tackle
##iant
armored
riddles
occurs
dispos
stranger
xenoverse
approximately
awfull
classical
1500
integration
ezio
##mmmmmmmmmmmmmmmm
inevitable
welp
settlers
##gon
stores
##formance
restrictions
72
kr
liz
defint
sadness
vermint
usable
carries
pd
tak
applies
##times
stupidity
rounded
cele
banding
teaching
interpret
6gb
xb
ths
extern
overworld
slides
supern
apartment
cancel
uncharted
##gam
##ormed
iter
##sect
modified
unreli
soma
shops
legitimate
invincible
hatch
tong
##aay
##aired
stance
hopping
##dding
infront
tweaked
advertisement
garden
inaccurate
hulk
##alf
noticable
##child
exch
expiri
modifications
banks
appearing
ironed
vermintide
yup
##cially
recipes
usb
contrary
tf
crown
sinking
margin
accepted
delays
bucket
az
##bots
bele
hal
shif
##osure
confusion
tags
blatantly
##aser
fraud
knives
beautifull
chocol
unbe
agg
quicktime
courses
dumped
spit
reson
exceeds
critics
noticing
##rog
edf
exclu
subsequ
unexpl
##yu
abusive
diver
puzzling
joe
customizing
tedium
defeating
branch
intensity
##ini
##armed
buzz
##cells
fez
boi
standpoint
turtle
sweat
romp
inexp
freeman
##girls
establish
63
upper
hug
counterstrike
ceo
september
kil
##sea
una
horrors
frog
intersting
rar
##can
##75
dock
##reated
goats
clown
agian
negat
antagon
triggers
marvelous
##iser
##ums
smack
masters
translate
enviroments
revelations
tiger
sponge
##iginal
duels
annoyingly
greeted
techniques
noire
grapple
cheers
minded
raptor
syndicate
fart
##pro
##tery
scoring
symph
syndrome
notable
quint
annoys
restore
passen
popped
##lolololo
freelancer
worm
comedic
subs
feeding
religious
maneuver
fap
fck
mun
mec
sizes
##ea
playin
laptops
abyss
corporate
newbie
rebell
dim
ress
recommendations
instal
2001
vram
chilling
evey
funnest
##ias
##mhz
##pus
attila
effici
writers
nukes
geor
producing
performs
attributes
cthul
hent
##fing
##front
robust
adjusting
keybind
york
ignorance
pic
rook
##icy
##ete
fraction
scripts
exter
string
viscer
escaping
repetive
1080ti
approaches
displayed
rampage
enthusiast
external
sau
srs
##you
toggle
whist
failures
nerv
shouting
savage
nam
pall
##lated
##42
##oub
bummer
intern
impos
artists
removal
earthbound
crippling
scariest
##eeper
swat
bikes
projectiles
fluff
shutting
64bit
positioning
supernatural
fare
##zed
dosh
needlessly
instruction
fantastically
burnout
dk
ys
owns
occass
priorit
ds2
##pot
##esive
proved
charc
leveled
nevermind
invalid
properties
##80x
repeats
appeals
distracting
unfriendly
aird
metac
redem
haul
enchant
married
5000
exceeded
venture
beutiful
unreliable
vita
disney
shoulder
bias
groundbreaking
guts
hmmm
##nnnnnnnnnnnnnnnn
treyarch
##aders
blizz
replic
hoops
crisis
horizon
imaginative
longevity
hdd
##lty
peas
taked
disabling
orign
believed
democr
fundamentally
africa
districts
hig
##arter
behold
convent
##ilites
##trap
##plic
marred
miserably
outrageous
london
bers
ties
##ua
##etch
spong
tek
terra
##arring
turbo
unreason
ruler
unforget
consequence
shittiest
benchmark
adequate
58
v2
throughs
gimmicks
neptun
##nie
##oug
befor
gett
weigh
impati
relief
sprinting
unpleasant
hentai
760
fictional
jaw
uma
##hs
##ette
amaze
borders
##arians
questing
quantity
rivals
squeeze
dll
##ien
overal
milest
13th
timers
elevator
vista
r6
##itation
tex
blink
messes
##yyy
continuous
concerns
associated
tragic
cliffhanger
egy
sot
##atical
##etti
fuss
struck
programmers
##hearted
disappearing
unoriginal
congratulations
wannabe
guidance
domination
##aple
coc
##anges
admission
float
salv
explosives
colonial
qa
rus
attr
frustrate
court
praised
protagonists
ct
jugg
kung
##iscu
bully
operate
embar
stoped
squares
electronic
subscription
corpses
bing
##cam
##45
gray
deponia
closely
##roller
exclusively
visceral
metacrit
##path
warz
##ggling
lava
respawning
tickets
spanish
berries
acquire
david
shirt
braz
fold
figures
casting
ordering
uncont
overlord
bushes
australian
mw2
999
##vr
##anda
agents
boards
commanders
unban
highlights
achivements
dee
##kins
##oning
recome
expects
phenominal
wrecked
bursts
gat
##19
##blem
20fps
indian
douche
##away
sta
stones
canad
##aky
snipe
tougher
bene
sakura
57
nier
wang
recomment
camps
refine
tyran
filthy
saint
disappears
2h
scifi
wherever
inevitably
wielding
ding
jpg
##ortion
runes
samey
##fucking
##mania
##ageddon
integrity
bayon
skeletons
nonexistent
neptunia
ctd
nd
zoomed
##lla
dip
banter
bloodborne
doubts
1980
smashed
ladies
pawn
thunder
##riv
plastic
clou
trader
likable
darksiders
overshad
##pace
uncon
scumb
horses
cubes
torment
brawler
gree
##allel
neglect
despair
disadvantage
basketball
##nies
##lings
##adable
blunt
##words
researching
starship
jeu
smell
##oons
maniac
learnt
animat
firewall
encouraged
07
timeline
moreover
fever
emily
undoub
##poons
fifth
chainsaw
##iepop
wy
canada
justified
prog
imperial
wary
lowering
coloss
jerky
hid
chin
abo
bless
hoard
trails
unreward
links
blends
unnecessarily
##ittle
halt
elegant
havnt
represents
fashioned
kitch
poured
##89
shed
clunk
competative
virgin
eagerly
##tte
##etta
exs
slip
remeber
##plane
machin
raiders
89
##hog
thri
##loe
cutter
##avo
corruption
werent
crimin
prettier
vig
steroids
##etically
shen
##urned
persistent
tonight
illog
simplest
dwarves
commercial
metacritic
sjw
ufo
##69
farms
##athon
mainstream
win10
forgetting
dumbest
vikings
jurassic
req
plate
##hero
syner
excess
hosted
rotation
gtx970
fame
tac
comical
england
campaing
snail
shelf
reminder
marry
gloves
facility
littered
08
43
##ckey
shy
##aine
backs
##aaay
ramps
sufficient
photo
cav
##care
##lle
stumble
chips
fuk
potent
ridic
rambo
nerds
riot
pinn
fulfilling
resembles
atlas
corsa
tongue
alex
dw
ness
adam
devl
emails
##awa
morons
torrent
behaviors
unimagin
moderately
katana
safety
takedown
hehe
smarter
##ronics
piracy
griefing
##67
someones
wealth
embr
huniepop
bullsh
thrilled
evolving
adjusted
scratches
df
##oft
butth
spint
acad
stead
accent
transp
asteroid
absurdly
kle
##cri
sounding
underde
cryptic
fury
gathered
hills
adaptation
beeing
announcement
overclocked
fandom
mulitplayer
celebr
##bies
heap
bleak
hallway
htc
independent
mlg
ludic
##overs
gametime
##ller
buried
spends
metaph
explodes
jetpack
pts
tacked
##mp
##eces
unist
##aku
teamates
##cups
orbital
##uuuuuuuuuuuuuuuuuuuuuuuuuuuuuuuu
unrewarding
68
78
##lite
##bon
##v5
##100
shaped
farmer
skype
wholehearted
microphone
marketed
pissing
dangan
este
princ
congrats
gordon
eur
chip
allways
happier
relatable
limbs
boardgame
railroad
echo
vomit
bows
i3
lon
wonderfull
markers
processing
shutdown
activated
##99999999999999999999999999999999
revers
geting
sciss
charges
optom
clem
talented
128
raven
responses
compensate
hiccups
cad
manga
troph
customizations
spoken
breeze
pap
pant
sd
umm
##pew
##zu
isle
##riad
offs
slave
battleye
resulted
##killer
swearing
soooooo
manipulate
disconnecting
##iture
haw
asp
mah
##graph
breakdown
debt
administ
universalis
mast
pits
pounding
slo
toby
##akers
distraction
flooded
memorize
els
tire
##unted
##ersive
upwards
mum
##ddle
slowed
laughter
splits
prisoner
bf4
##ssssssssssssssssssssssssssssssss
bathroom
abruptly
pse
##rad
bypass
##umul
handy
lessons
freind
transitions
followers
delve
unfolds
ais
dancing
lur
everthing
endearing
worker
craving
behalf
redeem
champion
##block
##think
knee
offense
generators
slaying
nyan
##tttttttttttttttt
similarly
dystopian
##urance
bricks
inclusion
solita
programmer
dosnt
respects
harvesting
kf1
cel
fue
chi
overrun
loops
print
darkrp
considerably
presence
aimbots
threats
briefly
renders
miscreated
doo
tid
tiring
wank
##wide
theater
chloe
twd
interactivity
aud
suggests
borderless
escap
ingen
displays
redemption
##55
##arus
neo
alg
behave
battler
2002
counterp
chopping
tolerate
jar
##illing
tran
highway
yelled
confidence
inventive
stressed
fortune
dx11
scientist
solitaire
olist
tens
wth
zom
##dle
##ei
##hots
partial
versat
volvo
##xxxx
definitley
beneath
2v2
cc
##auri
pole
##bert
cores
quarters
##agraph
blizzard
peter
wicked
shre
orb
served
knuck
artsy
30min
rockst
stratagy
8350
faggot
wholeheartedly
56
robo
instinct
interests
bog
bold
rela
boyfriend
websites
renown
kitchen
mv
##imes
##ources
adict
##1010
oyn
unic
plent
##ronpa
configur
ds1
eternal
darksouls
illogical
##eded
blitz
ranger
invaded
dramatically
billions
minesw
blueprints
fists
rick
##acher
##urb
alco
flowing
replayabl
##angle
occured
trained
morality
hurting
motivated
flamethr
##rion
##unition
chunks
bugging
eleph
paragraph
sniped
implementing
teenage
drills
##wre
##mentioned
throt
dependent
bolt
05
hitch
hired
jug
diffic
glim
mont
punches
potatoes
tolerable
##esyesyesyesy
spintires
##rete
anxi
setups
##bbles
commando
identity
zer
##atement
toolt
flower
secure
simulate
mindlessly
merchant
ironic
rn
tec
tought
fork
nek
mania
sprink
recognition
rebels
shortcuts
danganronpa
anxiety
jav
##22
##asher
whining
compass
imgur
plugged
##agan
pride
slowdown
ranges
distances
osx
utilize
outfit
infamy
ragequit
srsly
770
bass
##based
##pable
##rup
abusing
expier
becuse
paris
looted
##wolf
lifes
lovecraftian
interviews
4ghz
jazz
##iated
1050
thingy
offical
impul
nearest
##crap
browsing
destructible
##encies
henry
extraordinary
harr
##master
##pal
##itate
alch
exposition
##iped
hopeless
burnt
arcadey
industrial
captains
crawlers
magazine
350
reject
stem
buen
endure
holly
directed
undo
absent
kerb
barbarians
impliment
furious
schedule
nicht
ft
mtg
sons
grant
overst
kno
define
lists
treas
130
sources
wik
influenced
succeeds
subjective
##eeeeeeeeeeeeeeeeeeeeeeeeeeeeeeeeeeeeeeeeeeeeeeeeeeeeeeeeeeeeeeee
seamless
##graphy
##nis
##cover
##hou
ongoing
agreed
##atched
sketch
behem
asth
sherlock
eagle
esea
hamm
cherno
flush
smg
swed
guessed
tunes
rusty
mainten
employees
aggravating
unbeatable
nervous
##mate
##uted
##ooks
chem
degr
becau
intim
veget
##abil
brush
picky
medical
choke
percentage
assetto
pinnacle
minesweeper
alcohol
dil
scept
##buster
##77
##v3
##oph
teamplay
portra
compatability
inhabit
submarine
rebellion
##kick
stimul
enn
borrow
beforehand
orient
replays
exceptions
##uuu
traverse
requests
villains
receiving
unimp
480
cm
iq
iphone
kits
teasp
##abeth
##agex
bitches
eliz
evident
amzing
revamped
bravo
optimizations
retreat
painted
leaderboard
hexcells
replacement
throttle
teaspoon
nan
##600
immort
sandw
lightly
##0000000000000000000000000000000000000000000000000000000000000000
##wwwwwwwwwwwwwwww
behemoth
62
shin
polar
290
reader
americans
blindly
relying
glasses
scorched
diferent
jarring
voted
xiii
##qe
sham
stray
travers
9000
kur
##link
confu
allah
afterb
checks
ladders
stabbed
princip
jagex
remade
costum
encountering
hotfix
lightsaber
ahh
##ya
meow
##mente
serie
highs
striking
centauri
motherfuck
tempted
corporation
masochist
nitp
##gery
shaking
unra
muy
superhero
##arium
visited
sideways
culling
micromanaging
reinforce
contempl
enthralling
wrestling
52
##iu
##ws
##v4
revert
myriad
finale
swings
finishes
sticky
barrier
knocking
hahaha
temporary
wepons
mushroom
brazil
1h
##cards
##icit
exped
advancement
argument
crippled
##lam
ital
trav
disor
devoid
elves
trucking
tunnels
stretched
cluttered
spagh
##tinguish
dor
eld
##upp
##lie
##pes
allready
##agging
partly
flowers
raids
intellect
ammunition
pseudo
##fd
##etics
como
newgrounds
resur
underpowered
loadouts
win7
satire
##ships
teenager
bridges
technologies
3ds
fyi
jets
noting
##rob
pose
remembering
escort
##pppppppp
excluding
sig
##packs
##aning
gosh
amuse
potion
immoral
conquering
##vvvvvvvvvvvvvvvv
ath
cul
mics
ns
forge
forza
##ills
twee
frustrations
rocky
##worked
strafe
shameful
scripting
tournaments
battery
bending
##engine
george
tps
##rived
sucess
##imated
scrub
##achi
surgeon
eval
cream
unsett
anticipation
newbies
dreamed
expirience
ptsd
duration
canon
everyth
ski
incap
prize
judgement
intentions
##bbbbbbbb
88
sisters
vivid
##fter
ster
screamed
pinball
intentional
jumpscare
neighbor
6th
hw
jones
##vision
##arious
seiz
meth
scratching
mirrors
convincing
sustain
canadian
dates
tbs
helpless
extrem
customise
##steady
losses
kotk
resistance
unleashed
eliminate
exchange
chocolate
tits
##rt
##itute
funky
imbalanced
rune
root
##ensed
##wei
slowing
medal
slashing
shoe
adjustments
dispite
deceptively
97
cable
iam
##powers
stacked
moly
alittle
sux
##inder
sledge
defi
restaur
admire
liek
contained
backstab
inconsist
googling
napoleon
furniture
beje
##eties
conspir
adventuring
literaly
ironically
clutch
87
dom
ue
##anks
##see
fusion
coat
##beam
tribut
drinks
simulations
bio
gifted
tablespoons
unforgettable
54
brim
mant
mint
##lr
delt
sue
repit
empy
grounds
altough
wipes
4000
sidescrolling
motorcycle
impatient
egypt
voting
begun
internal
backd
twel
incarn
rehash
sophistic
elo
fcking
oreg
##ander
apper
wishes
positively
goose
statistics
jewel
especialy
febru
symbol
inconven
dense
##yle
melo
##osphere
quotes
sel
waking
insist
topics
##mbers
crossbow
summed
abundance
##pi
pretending
##ailable
extract
obso
installs
profound
safes
coordination
lisa
disposal
clouds
elizabeth
oregon
3x
cage
##ni
##lash
##bra
spart
puzzels
massac
covering
dab
##xd
##erun
rear
enought
mindset
armors
laughably
dogshit
petition
otome
investigation
hedge
sack
##38
##lend
preformance
rod
2070
smoking
downloadable
possess
viewing
stunned
reloaded
troop
slaughtered
investigate
##oooooooooooooooooooooooooooooooooooooooooooooooooooooooooooooooooooooooooooooooooooooooooooooooooooooooooooooooooooooooooooooooo
stylized
iterations
hue
woth
rejo
docking
##riers
plun
mapped
persons
closet
##jekt
fmv
contribute
acknowledge
moddable
gma
lm
p90
dild
persia
cheer
communist
minerals
sponges
academy
spaghetti
february
flee
rave
##itbuy
commend
payoff
invaders
responded
boosters
categories
mercenary
oven
##cuss
soda
lev
realistically
##igned
unfort
informed
prevented
falsely
##bear
rever
##tering
##iend
coal
slim
excuses
preset
illustr
abandonware
mutch
conversion
teleported
tombs
holmes
fustrating
bunker
660
vii
church
shity
##amber
##ected
offended
perpet
##fuly
##olar
trusted
dreamcast
comparisons
attracted
dislikes
intimid
ik
cans
differnt
illum
##spe
panzer
rotating
verified
chronicles
workaround
amiga
kf2
##anc
bubble
10th
intru
incident
problematic
promote
arenas
locally
profits
exploded
apocoly
inexcus
flexible
dificulty
phrase
frightening
fools
chases
weed
uncomm
disj
##pered
trippy
##elp
complains
trackmania
centre
robotic
litteraly
liberty
awaiting
skulls
outposts
milestone
elf
##inion
recons
resort
consol
leaks
premade
merits
wwi
shoved
remained
unavoid
redownload
kl
tout
##onix
whore
module
fled
apples
remorse
directional
immature
sandwich
eula
pointer
unturned
quicks
woe
commandos
drawbacks
deranked
restrictive
laserbeam
understatement
beep
witnessed
scissors
cath
vids
##vd
##jas
##encing
youth
##alo
abused
modules
devast
joker
portions
##days
questioning
geo
horizons
bgm
martial
greek
fc
national
zu
##otz
##azoo
##loc
dodgy
synch
pewd
locomotion
fade
tamed
##liness
insect
##lys
##idents
##opho
##lox
usern
accumul
antich
importance
calib
pacific
accordingly
concerning
barrels
tremendously
betrayed
manufact
plentiful
7th
##rian
moons
##iever
cram
ado
bugfix
backing
banjo
herself
minority
racism
keybindings
160
##79
##ystem
##reading
##sey
articles
advancing
collector
vaguely
assigned
underdeveloped
##itbuyitbuy
hut
##uation
##wars
exo
pref
##ishly
backup
instru
aliasing
minimap
chills
repairing
individuals
promptly
pockets
5k
fide
##marks
re4
liqu
worries
ores
crank
disple
hockey
remix
poland
severs
capability
considerable
individually
minigun
determination
walkthroughs
##rophob
orignal
51
kinks
rack
wid
hail
finan
slipp
uniqu
superpowers
severly
dumbass
networking
cannibal
prestige
ropes
##48
asians
conn
donkey
scales
article
swift
relics
reluct
located
screws
producers
recreate
afore
underlying
unfix
stuffs
hotkeys
unsettling
aust
aven
tires
wifi
##aving
##480
##39
##wd
##wed
##erved
whack
notably
mycare
flips
rpgmaker
merit
cultural
maintenance
dl
rd
rash
vend
guest
combats
casino
bothering
schemes
bouncing
cheek
hinder
indulges
democracy
ale
woud
##drive
thom
thieves
##irect
flare
rocksteady
turt
uninspiring
incompat
beleive
mycareer
jagged
qtes
##inent
buis
##riage
unin
unif
spoon
coherent
waaay
usefull
##nerable
urban
demol
##formed
tasked
impactful
stabbing
robbery
cliches
ftw
doe
proph
splend
##renching
vacation
remarkably
sanctum
saturday
##tley
minu
visiting
douyu
sectors
cybor
benwei
outdo
psycho
repetitve
nie
ruth
thay
##erable
maul
aber
proport
rose
apps
cardboard
roblox
jerks
branches
woul
xx
##tales
butch
comr
##iltr
##ounded
cursed
blog
imposible
dz
pyr
##member
reas
wha
arst
agency
awes
desyn
surp
toxicity
coh2
palad
pussy
staggering
##fx
##sd
##made
anth
##usd
##erience
reasoning
depict
relation
approaching
treats
competitve
cherry
220
dots
sib
overhe
##lik
firefights
slaughtering
cthulhu
lou
##onauts
beans
output
brow
mete
1200
homes
airplane
cashgrab
climax
mutiplayer
omfg
crowbar
chrono
censored
charecters
braind
unavoidable
pewdiep
wwe
##isable
als
prelude
##acters
restored
mindbl
heartbreaking
framework
profiles
catap
contrad
suicidal
clarify
##omorph
tooltips
resurrect
obsolete
##gies
##medi
asc
fruster
pero
fullest
epit
existance
bleach
racers
terminal
segment
lesb
treasures
unravel
todd
haunted
101
##dead
##weled
carr
masses
awareness
##blance
terrified
55kai
indicator
bomber
lizard
administr
twelve
uncommon
##nar
##sim
sooooooooo
wastes
funcom
seeds
abandoning
chris
##fuckfuck
reskinned
husband
reconsider
wou
##rack
##inth
whine
shant
grapics
starved
infiltr
shells
morale
burns
pengu
booster
gigg
peasants
##pewpew
empyrion
disjointed
jc2
tang
##itt
mastering
ironman
juice
enthusiasts
bould
han
ohh
meal
multy
enticing
apro
weirdly
scammers
nigga
accompanied
cocaine
sill
wired
##erk
##enix
shares
##apse
##ulty
##bey
##amente
containing
tribute
bounds
lux
pian
##rest
##ju
donate
expire
##ishes
stepped
strings
consumed
firearms
##csgo
bundled
respawned
undoubtedly
km
##uity
##rem
issac
headaches
despise
##cuff
cowboy
declared
gimmicky
bacon
sarcastic
impulse
gs
peeps
sap
##park
rechar
union
##omed
modif
braid
php
##forming
##aaaaaa
painkiller
furry
##warming
documents
cautious
flexibility
labeled
uncontroll
james
yards
##tly
##vy
##isa
reworked
fauna
extinct
spacebar
remedy
lootboxes
exploiting
rigged
streak
downt
scummy
symbols
hazard
poeple
showcase
pewdiepie
##km
soe
dizzy
regre
gungeon
bogged
grips
ambig
resetting
1997
guardian
folk
funnier
sr3
african
unreasonable
splitscreen
bejeweled
kan
mt
##ville
10fps
missile
##ensible
carbon
evade
techs
casuals
alternatives
proceeds
identify
thirsty
faz
gaps
sate
##dge
##kan
##enging
singular
versa
gunpoint
epile
duh
mentality
worrying
unstop
rename
surpasses
gallery
gruesome
goblins
deliberately
immortal
confuse
ay
nik
ron
tape
##ui
##eer
##kj
eventhough
##osh
##aboo
bron
marketplace
tricked
numbing
ocd
threatening
koei
chambers
unavailable
##openopen
v1
##aton
rewind
reco
stepping
2560
colonies
suspended
hedgehog
ego
ove
##86
##erating
##imens
##osaur
legos
affecting
2000s
cooperation
origional
cmon
##uch
##aith
reused
doge
allied
goodies
leaps
peasant
launchers
retrie
ape
vampires
waters
busted
entrance
sed
##esed
italy
##render
playe
mold
savi
resume
appl
cryst
describes
barley
handsome
critique
sentences
temple
havoc
injury
ling
uru
##ben
onl
forged
orbs
traged
##berg
famil
navy
succeeded
wireless
username
666
fc3
sway
##uls
##sol
prisons
gib
blacks
heartbeat
gtx10
cups
frustating
6600k
##aaaaaaaaaaaaaaaaaaaaaaaaaaaaaaaaaaaaaaaaaaaaaaaaaaaaaaaaaaaaaaaaaaaaaaaaaaaaaaaaaaaaaaaaaaaaaaaaaaaaaaaaaaaaaaaaaaaaaaaaaaaaaaaa
dagger
vult
##rating
charts
guer
##aneous
logistics
priorities
pauses
7700k
sophisticated
aforementioned
doomed
##uries
##burg
anom
projekt
composed
scree
pupp
waaaay
reped
cod4
replacing
attachment
fifty
rougelike
surpassed
##zzzzzzzzzzzzzzzz
##fighting
jitter
vap
vod
##mor
toe
##acies
##rok
greats
ro2
openworld
hitreg
invading
negitive
powerfull
preparing
dedicate
researched
reveals
taxes
unleash
rooft
ehh
gd
##ighter
##ective
themself
boasts
##umbra
destory
strive
roguelite
verge
midnight
##wreck
cum
##tb
##iton
rework
lip
##agues
cli
20th
simulated
##rence
mobility
escal
cleverly
wiping
treatment
respawns
renamed
overhead
korea
overshadowed
steadily
gmae
##tem
ree
washing
poll
seed
shitting
typos
##aaaaa
legion
hideo
bearable
precisely
chamber
antagonist
antichamber
dante
io
mall
piles
rl
tant
yah
##untu
exem
##umn
seal
factories
##holder
coasters
insults
acquired
dubstep
gladiator
sceptical
gur
sist
##hun
whi
scs
scopes
seas
borr
waif
handic
diehard
banana
indy
flashes
christian
unexpectedly
altered
thriving
hollywood
afterbirth
hou
##los
##x14
##rel
##riel
poten
fanservice
framed
oppinion
phenom
cringy
cooldowns
crusade
emulate
awaited
workarounds
rewrite
braindead
kh
##sis
##yard
##eries
shu
buggs
somethings
boil
physx
heartwarming
signed
patiently
widely
represented
diplomatic
commitment
whims
sidescroller
washed
boycott
##diment
##onon
mock
awak
almir
italian
cues
steals
##mond
fanatic
handcuff
armageddon
promiss
absence
##blade
brightness
pandora
namco
96
##das
notor
shru
alarm
grah
divert
runing
completley
waits
entit
autism
lively
homeless
boarding
faulty
assistance
barbarian
participate
270
clay
kawa
misf
wore
##cil
##bag
theat
strain
impr
consisting
parks
physic
daunting
motherfucking
##click
decrease
relentless
mindblowing
catapult
0x
390
sce
tide
yawn
stair
gameplays
flaming
inspect
describing
hosts
liners
rythm
##11111111
##qqqq
stereotypical
inject
##thon
##emic
scru
flank
singing
muscle
talents
recomendation
macro
lighter
automation
evolves
psyonix
observ
subsequent
disorient
gan
##dly
theor
becaus
##umph
sliders
comeback
satisfactory
postive
spammed
petty
unoptimised
ragnar
loser
piano
akward
cere
sith
##este
beings
wraith
devoted
foe
costing
marker
regretting
homest
unplu
temp
##minutes
captivated
passionate
batteries
##rrrrrrrrrrrrrrrrrrrrrrrrrrrrrrrr
gwent
controversy
##planes
adictive
demolition
waifus
icing
tiers
##number
##rone
rept
stacking
alloc
tract
feud
teens
diffuc
werewolf
emblem
##ression
trainer
prefered
consistantly
sensation
dosn
ledges
ignorant
discourage
expierence
ci
stacks
dome
badges
flora
mounts
moo2
ragdolls
restaurant
bent
naming
##illed
spine
##andy
disres
##quest
##ggles
agend
tabbing
10000
patrol
fidelity
lush
sier
tty
##jack
anxious
nem
teacher
descend
particle
##athers
corny
absou
twitchy
##cccccccccccccccc
lul
vns
whoo
##thought
orks
##iefs
accross
fuckers
masterfully
escaped
goof
circu
suspension
skirmishes
symphony
100000
spraw
ponder
clu
blades
##issions
secs
100x
formations
crypt
writting
nerfs
bowling
organized
settlements
4690k
superficial
interfaces
hearthstone
unimaginative
c4
wed
yield
##fig
doable
plasm
developpers
bo3
boggling
sadistic
admir
arround
mesmer
achievment
bandwagon
interpretation
animatronics
##fast
ontop
triumph
unfam
savegame
dammit
freero
dug
flashbacks
competing
speakers
##eye
unfairly
sympath
pausing
buggiest
shifting
metaphor
inexcusable
buisness
arstotz
fiddle
tumb
stagn
notification
heir
esse
cutesy
illness
catast
organic
grafic
rediculously
horizont
palette
lemme
##x1440
lick
##uman
payment
merch
explanations
hahahah
bayonetta
ludicrous
relaunch
slippery
ooo
tapping
wis
wider
##mill
gamep
rebuy
staple
crab
glued
kindly
##renches
shameless
tonnes
mobas
moron
warnings
crouching
enhancements
seamlessly
leaning
scarier
napoleonic
kawaii
wrench
brill
mechanisms
evga
protecting
ultima
sams
ninjas
imaginable
g27
thomas
baz
listing
##95
stake
dex
enjo
trau
loveable
phones
100s
##bbed
deserving
demos
varies
##laimed
committed
obtained
emergency
breeding
claptrap
rookie
molyne
5d
cig
vag
##uce
##aing
##ris
##omance
##opping
fronts
tron
##asted
modest
seige
wrath
chooses
ubuntu
seasoned
dsfix
intrest
800x
improvment
defintely
rockstars
ku
##oin
##hp
liv
##izable
refusing
dragonfall
psychopath
stardrive
keybinds
medicine
##ffffffffffffffff
##kkkkkkkkkkkkkkkk
sarcasm
##children
feudal
5ghz
binary
cows
##igans
##acted
extension
avp
inferno
remembers
cries
brainless
erased
unforgivable
romantic
actuall
johnny
tossed
##iiiiiiiiiiiiiiiiiiiiiiiiiiiiiiii
lynch
oun
rive
##eur
##ona
##iti
contacting
runn
finicky
impre
surgery
persona
##olis
gunner
phases
editions
##heim
catches
forests
axes
labyr
hallways
fiddling
##bags
tol
arn
##ahh
indef
forwards
notebook
concrete
640
gigaby
spectrum
caveat
await
distracted
lucasarts
algor
knuckles
aus
##1t
reim
outer
graff
doesent
multit
monkeys
dressed
woah
swall
aims
commanding
daed
structured
troopers
##regate
competitors
comprehensive
bruce
sistem
gains
##orms
playlist
drastic
##ifty
##rrr
corn
approve
consistant
economics
debug
144hz
criminals
emo
##isure
##itary
##stic
##sticks
hax
##this
upv
hefty
mayor
camper
starwars
balances
plotline
sweaty
hideous
strategically
baldurs
downgraded
carniv
charecter
##dlcdlcdlcdlc
powder
x2
##mic
##eni
rez
whip
sunday
arnt
wholly
coinc
guided
promotion
walker
filters
bandai
jelly
zooming
tinkering
acheivements
negativity
tragedy
53
##fined
##bows
##asma
dol
##osoft
develope
puddle
suppor
customized
normaly
texts
ourselves
corrected
dosbox
addressing
unnatural
propag
flavour
ee
##inging
atom
ac2
acct
stupidest
soup
kickass
closure
automata
titanfall
stomp
vibes
wingsuit
dismiss
mercenaries
slideshow
##cap
##ao
##zo
##itating
chores
uno
trys
realising
perse
conscious
##ooooooo
trait
marathon
technique
##mbling
booty
tasty
cohesive
2hrs
coss
ia
proc
tails
interes
##quer
broforce
progressive
testament
besie
senses
datab
experimenting
registered
revenue
claust
sierra
##ais
formed
shat
##oper
goin
muddy
looping
##gress
perfected
##ibilities
firefight
presum
##she
risky
conquered
bf1
revisiting
rabbits
##ophob
uniqueness
vodka
ave
cun
iz
##nc
##bang
##anly
shaping
commod
##urm
donald
scav
inclined
defining
challanges
opengl
gunning
misery
murderer
gliches
wheres
arstotzka
athm
rh
zed
prost
slasher
salem
keyboards
grinder
wallhack
formation
presses
supers
pills
frickin
conspiracy
dimin
stinks
##irl
surrender
promo
firefly
meantime
tabs
lovingly
boosting
##40k
loosely
contrapt
suspenseful
##graphic
sketchy
catastroph
molyneux
rico
##ike
##good
relly
anyhow
subl
hotel
crimes
risks
chopped
pinch
separately
reflects
gentlemen
goblin
##dogs
##bg
##eral
exits
conver
acut
plu
scaled
characteristics
chew
bats
drun
seeming
reccomendation
antic
competitively
dads
ck2
wrecking
verifying
configurations
delta
disrespect
unfamiliar
sane
##iar
downed
campfire
negatively
ignores
harry
injured
paused
spoke
##rubrub
disguise
incapable
dildo
splendid
sprawling
cg
x64
##hq
rew
forbid
deaf
frictional
grin
overload
puke
index
counted
manageable
shaders
breathe
tendency
shockingly
recognized
isolated
sfx
3v3
dag
ew
kitty
nest
##erver
##kel
acom
leisure
contrived
mono
teaming
oneshot
penumbra
affair
drawings
bloom
rigid
babys
somtimes
galaxies
historic
hesitation
tube
vaulting
ruthless
labyrinth
algorith
nord
retr
stink
whiny
comun
##iless
expe
musics
speeding
narrated
suffice
assassination
blob
crossfire
miracle
femin
dominated
manipulation
adventurer
improvments
sledgehammer
aerial
##df
##aic
##vol
playground
##chi
spins
heh
##ection
overp
knif
infr
##iances
apex
barn
practical
dragonball
defeats
numbingly
gnome
previews
crystals
##mi
##ados
shack
alle
spears
anyth
fears
charism
##dia
enters
##axe
40fps
wisely
limitation
brute
tempo
brig
cancelled
communicating
rejoin
nifty
pent
##85
##zi
shuff
##oping
loots
modification
achieving
civilian
forgiven
approval
##space
raining
shopping
criticisms
necr
wizards
slept
praying
brawl
flamethrower
fences
nada
##fus
##itos
abos
charach
revamp
tavern
excel
cycl
unde
syncing
deriv
##thearted
destructive
##aaaay
performed
hazards
3gb
gc
fricking
compos
compares
hels
uss
backward
tryhard
mecha
##appa
mastery
gtx7
appreciation
ought
uneven
assasin
cms
lure
##alry
muse
offset
smh
purchas
swag
spoils
property
hillarious
clueless
##clip
victims
unexplained
drunken
eb
hides
lung
mish
rises
vic
##laim
##vor
##inces
##asco
inov
bubbles
spons
leon
fuzzy
monop
favors
competive
##filling
peek
coffin
unstoppable
800x600
ae
fid
sq
ud
za
thrive
isis
rethink
playt
distinguish
monu
##plicated
##omancer
2k16
boosted
cracking
upsetting
dimensions
portrayed
##hhhhhhhhhhhhhhhhhhhhhhhhhhhhhhhhhhhhhhhhhhhhhhhhhhhhhhhhhhhhhhhh
hobby
convenient
klei
versatile
epitome
gand
honey
yer
##free
rek
asse
shatter
fru
endorse
laggs
##shit
marriage
motions
nerfing
bummed
autosaves
turok
taxing
##66666666
compensation
kidnapped
d3
mong
##ras
##uting
amout
awake
bo2
scholar
##shine
lighthearted
dangers
cruise
pedals
interrupted
touhou
##x7
##arming
exiles
orwell
fract
steph
multipl
brink
##naly
optimistic
connects
disgusted
expression
underwear
##heads
laziness
acknowled
amusement
oops
##uh
##money
beter
beard
##lding
funner
fuking
developments
underwhelmed
survial
alphas
explores
lockp
queues
officers
##byl
knockoff
reflection
recreation
kongregate
assasins
passengers
multyplayer
dave
lib
wors
aler
##ilah
unload
blues
perception
appalling
obscen
##aware
tactically
empath
demonst
4770k
registering
transportation
employee
g29
summarize
butthurt
elephant
76
ig
raged
token
##irts
##igo
##erium
##achel
insted
friendships
elim
smoked
caus
2k17
patri
cliffs
comprom
fledged
wrenching
##mph
##xual
bem
##alous
##idos
haveing
dehy
overpower
##aga
vel
##mods
inco
probl
continent
excellently
cycles
stunningly
darth
6700
angel
impossibly
molot
pong
##ionage
mazes
abound
knees
dismember
##assment
carrier
##ructing
masterpe
approved
influences
reliant
sauce
kerbals
lesbian
helsing
dys
ghand
kazoo
whale
playthough
enim
crunch
peaks
skies
flair
cursing
trully
advised
tones
##ellent
producer
uncons
demonic
flags
conflicts
merciless
jews
propaganda
claustrophob
dood
ell
kai
vet
##kens
##21
##mel
heli
fixcsgo
fucker
##athom
objectively
tony
astrone
somone
intrested
crowded
terminator
stroy
pon
zoo
##bur
##anigans
befriend
##ilight
masterful
crims
disclosure
scanning
bulk
fiddly
##gamer
alchemy
wack
yr
##ismo
##encer
##eting
##idade
##ira
convert
frist
sealed
##izer
shitload
appar
fodder
optimise
excels
deepest
gangs
fifa
adventurers
transparent
cyn
##46
nev
leagues
flames
valky
promot
variants
locate
imagery
signal
practicing
commonly
ambition
synth
hipster
heights
router
freeroam
zest
##36
##itated
preced
seld
decap
skim
##ooter
espionage
epoch
unfortunatley
homework
arcs
arrested
booting
radiation
praising
matt
gutted
artificially
architecture
discouraged
homestuck
indefin
sublime
pier
trenches
vit
##uy
##gaming
worn
ati
contest
slav
##athan
infl
blacklist
gtx1080
blender
fiasco
fluidity
##breaker
occurred
departure
googled
santa
entitled
gaur
rake
vect
votes
##27
##ano
dovet
neko
charac
realization
##oli
swamp
##mmy
parallel
adjustment
defender
envior
hoi4
financial
browse
61
baught
vp
##asion
##ribe
buyed
desol
imper
skate
scram
gloomy
produces
treating
dow2
delilah
exceedingly
heartedly
repetitiveness
pursuit
chernobyl
database
1gb
dnd
dps
mothers
x360
##uated
##udes
##athing
bees
beams
##ortex
veh
crashs
##aki
styx
30mins
discip
polite
gioc
copying
grandchildren
emailed
conflicted
exhilar
indiana
4v4
aur
bizz
ether
hq
lion
##rey
bells
enfor
gamespy
charaters
realms
##onds
jogar
predators
##hehe
sharkcards
mike
translations
1995
kinetic
inexpensive
pion
zip
##cat
##onne
##ayay
##ida
prev
##tron
dissapear
flashback
frost
ds3
unhelp
gtx980
ghandi
kom
pipes
##fw
##winter
##isk
invert
stall
shoud
lend
contender
othe
agon
differs
skips
smith
elit
swarmed
indicate
1996
fetish
students
stroke
surfaces
controversial
administrator
whimsical
170
cked
fables
gust
tug
##uk
tooth
adress
scour
revived
runtime
trips
##trical
cope
productive
erase
splitting
unsatisfied
arrives
yuri
realease
masturb
8th
aper
gy
nipp
##far
##mt
##anas
##seen
crick
betas
accents
##felt
##orship
swapping
believing
province
existential
millen
advertises
mutli
fisher
html
novice
augment
binge
inhabitants
illumin
ragnarok
crimson
pp
stump
spree
##ashing
realtime
twilight
##acht
flipped
arma2
periodically
racial
dumpster
stomping
arpgs
recovery
senua
angels
##3333333333333333
seldom
##cis
shaky
##aste
crave
pron
rog
variable
ahem
payday2
funded
accepting
beacause
nya
rayman
salvage
kazooie
5v5
rere
tat
##idi
alliances
chars
horr
assort
glitchs
metric
wonderland
packages
##hhhhh
altis
farmers
smartphone
actully
octop
octod
stretches
ryzen
speechless
drowned
##hunter
astroneer
dovetail
##aration
makeing
charater
slaves
defences
perspect
stuffed
questline
##netic
emotes
spiral
moody
irritated
recognise
teleportation
##matched
podcast
finnish
mexican
dehyd
wits
gameboy
##eso
todo
##ena
liars
trades
ac3
outnumber
##tely
remakes
prospect
roadmap
bloated
##built
derby
horrendously
engagement
mw3
comprehend
gest
jee
kys
r1
##pool
reaper
bean
fors
fores
##ustre
##ulate
exposed
diary
arab
modeling
turnbased
morph
conclu
preferences
##held
purposely
encouraging
planescape
affordable
engrossed
tester
paranoid
##8888888888888888
counsel
molotov
84
ame
cz
jest
tp
yt
##uper
##2k
##iterate
##cha
anc
storymode
cods
fixable
perfomance
edm
regain
rangers
##ogue
norse
grandma
critically
frequency
sensible
teleports
malware
betrayal
hoi3
adapted
reluctant
##cery
##28
enig
##ilation
whichever
badger
probaly
refound
##bby
##eeeeee
enviorn
concentrate
absorbing
liquid
cossacks
##uer
##gate
ala
dew
unhe
##astruct
disga
##atingly
horn
shortest
pope
boxing
expressions
moderators
interstell
shaft
intellectual
octodad
ting
bearing
##oma
##rieg
abou
dile
diffc
sliced
incread
listens
explorers
popup
heroine
counters
raises
bombing
constructive
anticipating
rct3
newcomer
althought
realeased
vessel
neglected
mee
##gal
##atures
shattered
##rival
##cky
interior
ende
##sss
sweep
freaks
redes
basicaly
necessity
disasters
pedest
studying
incompreh
##gggggggggggggggggggggggggggggggg
kiddies
chucklefish
disgaea
cuck
jak
yard
##mn
##mies
thee
##esar
afterthought
untr
underworld
drac
carav
heartfelt
trashy
barriers
ffb
akbar
piloting
mgsv
testers
abundant
enchanting
unhelpful
draft
fend
ripp
##cd
soap
##opara
backround
##aching
decline
braking
excit
restr
corp
corresp
cheapest
invented
colonist
grimrock
capitalism
vocal
stoked
pulse
retains
texas
gary
wagon
##iors
##mar
##yon
##mets
sock
outrun
amazon
##eeeee
dealer
sheet
heroic
stunts
affinity
murders
creeps
cleaned
evoland
weekends
housing
neighbors
airdrops
seizure
assortment
bou
tiss
vass
##mined
##lless
bew
##irus
##ulation
suport
expon
##aully
storys
generating
grinds
parking
auf
intros
16g
brilliance
blasted
deletes
conclude
unpro
elemental
handedly
quantum
championship
settled
spacecraft
nekopara
massacre
meteor
agenda
presumably
masterpeice
eac
gif
peel
rc
ws
##case
##inn
##isch
rete
stir
hap
records
##pple
overtime
warming
redone
reccome
utility
boobies
madd
demolish
##ahahahahahahahahahahahahahahahah
enimies
##hards
outbreak
arty
##erienced
borring
lookin
triangle
flor
metas
cooperate
256
sentiment
hike
organization
##ranked
oyunu
faggots
disguised
absolout
tyranny
niko
eater
ott
pane
ros
x4
##uri
##iently
##yer
ats
align
prolong
##osis
overcom
scand
bitching
##ormal
putt
drifter
rancher
##angles
statements
viewed
unrelated
21st
stardock
electro
graduate
penalties
lauch
nonexistant
apologize
quintillion
dic
pice
##jj
##29
##verns
overused
imac
##ago
pug
curb
##ddd
rudiment
avg
indo
15fps
coloured
12gb
machanics
turk
morbid
##guard
milsim
##buff
labs
pitiful
embrace
fueled
pec
pics
pige
##gard
thour
gamepl
inverted
exotic
1024
agressive
seams
faq
starb
bann
flyers
reminding
critis
mounted
vanished
shifts
bfg
hampered
reveiws
submitted
rarity
gettin
foul
sount
##sess
##cop
##mous
injust
##stre
shakes
uplink
firm
complement
##fund
##lutely
swarms
herb
weeb
selfish
##ports
awkwardly
dependant
luke
hamachi
downvoting
vulnerable
temperature
stain
forming
haunt
ench
abzu
10k
adored
bliss
implies
##aids
battleblock
majorly
conclus
dreaming
##ounced
speaker
bottles
divisions
convoy
conduct
raptors
oozes
charcters
plunge
borrows
##iro
prox
simon
##awful
dissatisf
cryengine
##shed
ticks
##ifex
renew
pilots
##fixit
highlighted
fulfilled
resemble
nigger
education
enthralled
analysis
nothin
xbone
international
allahu
samsung
3k
tilt
##lig
##were
##vals
##erving
sti
conve
poin
issued
freeware
##olic
custim
collaps
reducing
losers
smurfing
efficiently
frusterating
imprecise
png
vain
inches
exellent
overt
##tek
##ailed
grinded
variables
##illians
##bris
misunder
##oooooooooooooooooooooooo
victories
diversion
scavenger
##iria
fkn
ennem
backdrop
synchron
derivative
dough
dale
lumber
tum
##mia
##bility
##onal
ants
enables
sabot
controles
waaaaa
esport
replayab
jumpy
countdown
maxing
immens
tagged
television
welcomed
obsession
altering
drowning
adventurous
distribution
94
apl
##civ
##idge
##amos
noble
amp
storywise
serving
blu
guests
gunfights
drum
campy
titled
##ccess
##rences
collectible
teddy
silently
cartoons
spinoff
jacket
northern
licensed
egosoft
exhausted
tekken
##rupting
incompatible
satell
besiege
anticlim
vector
exhilarating
##fixitfixit
bp
jon
md
vip
##name
##fers
##iner
itll
acount
overwhel
characterization
neverwinter
easly
faceit
minimize
projectile
villian
respectable
luv
maximize
extensively
pallet
zombo
borrowed
traversing
stephen
claustrophobic
bard
crop
dent
rit
dell
abd
unite
intact
pov
seri
interr
glow
india
bullcrap
informative
foolish
experimentation
bills
owl
sr4
loyalty
avaliable
consept
replayablity
portraits
gooseb
cyborg
93
bhop
tib
##iber
whopping
shith
ene
lever
backlash
channels
horri
subway
ubisofts
shaded
##101
fatig
gamepads
##fficient
boundaries
achivement
baffling
glimpse
monopoly
rudimentary
8bit
gym
jum
signing
wad
##page
##vis
regr
stark
openly
smugg
superman
uniquely
##ortune
soulless
collectors
##arently
executions
raiden
unicorn
highschool
travesty
jen
##olo
##inly
##metrical
##nde
##isations
youself
disrupt
hull
assured
banging
campagin
promoted
priest
welcoming
##ablabl
debating
investigating
michonne
ressources
dk2
retrieve
plasmids
aero
dvd
##bird
##icion
whirl
##vering
liar
unapp
amal
##ouses
usless
persu
customisable
capit
vanish
lvls
prompted
frustra
inherently
shenanigans
##astructure
teri
##eem
##ainted
prety
##uma
charity
rescu
##bola
insign
discoveries
sprays
adjustable
spraying
diamonds
m4a
##funct
documentation
colossus
families
horizontal
950
ome
wot
##son
##bally
##sta
nodes
crust
##aren
wrist
monol
artifex
##gger
detri
poses
antiv
##shot
assassinate
unpre
rainy
invasions
grubbing
contradict
shantae
clients
5h
vents
wu
##ugh
##jk
anus
trink
crapp
adn
manly
skaven
holo
incred
gona
dreamfall
naive
thrills
responds
reduces
dashing
reliably
concentration
scumbag
shrek
quicksave
extinction
zestiria
650
hight
nay
##ika
##vas
tos
##oove
##ths
monday
nos
##take
slowest
discont
excru
urgency
rushes
muted
karma
uploaded
ooh
pyre
##keeper
cricket
jou
##kit
##sting
##ersion
unranked
##azing
##azard
throughly
untouch
##died
drab
lair
divine
cinema
suspicious
spectacle
icarus
slew
appropriately
fantasic
certian
bough
bart
mx
thugs
##stairs
chief
abl
plasma
acclaimed
potter
##eling
wallets
copyright
rocksmith
gifts
sooooooo
unfixed
applaud
supporters
octopus
5x
ahhh
fp
yall
##fic
##bro
upto
maby
ungo
fromsoft
expense
neverending
fantast
coul
canned
variant
##icular
ramming
morals
processes
bonfire
automate
cleaner
psychonauts
morty
federation
warehouse
1990s
refinement
athmosphere
perspectives
tod
stad
shou
exac
moj
##ulated
mages
unful
preh
fucken
reskins
warr
##weight
winded
invo
ridicul
##certain
introduct
doubled
travels
operative
brutality
archaic
##blue
crushes
vocab
tentacle
elses
counterpart
comrades
bos
hiring
##bled
##beria
##78
chrome
alway
longtime
sinister
flail
conserv
definently
galciv
sixty
archery
debate
spreadshe
mkx
thrusters
barric
##walk
electricity
lifespan
intimidating
fic
ux
zig
oft
##apps
recommendable
##psy
reprod
supporter
##pres
opinon
gta4
paras
homefront
stickers
executable
moreso
hotas
legally
masterpieces
catag
statue
ff7
resembling
censorship
##yyyyyyyyyyyyyyyyyyyyyyyyyyyyyyyy
jittery
acompl
gj
##iple
##die
##itis
##stro
lov
beca
scored
##ichs
pepper
skippable
##version
##wered
unpar
possibl
containers
##nauts
infection
applying
exploiters
oversight
cliched
surfing
scientists
unwanted
unbanned
450
aer
okey
wir
##bat
asym
##estic
##imo
proving
interrog
litt
opera
##quent
slack
pickups
godlike
##ooka
balloon
approached
contempor
excessively
mauled
metascore
sountrack
fn
f5
pings
##poon
##oration
##alic
moar
##ople
spreading
expi
joint
follower
skinned
sunshine
cracks
tolerance
masochistic
stereotypes
##iscuit
theatre
panels
injustice
rav
rife
vale
##oa
##sels
##riz
firmly
recomand
tryhards
arounds
specials
airplanes
burton
tennis
pirating
scribb
arrival
unfunny
nausea
absorbed
##iing
##iver
##eed
##oos
sht
amused
teaser
##team
reserv
warner
randomization
relat
corvo
mattered
autumn
arma3
##udud
bombers
archet
publishing
monotony
stomped
cheeky
disgraceful
butchered
museum
antivirus
excruci
auss
mph
mmm
##lave
##dfr
##ali
##acles
skys
definatley
##awak
meticulous
cheaply
forwarding
125
signature
mediocr
masquer
meaty
spirits
rebooted
skullgirls
efficiency
unplug
kt
lsd
rachel
voy
##hg
shore
nost
##ached
valves
deadline
limb
snoo
godawful
intensely
##guns
240
bandages
chopper
ashes
lazily
destructable
victoria
consecut
enrich
ungodly
011
86
ply
pim
pff
wig
##lest
##bab
##ede
chug
debuff
nod
nods
unaware
clun
fines
warping
inviting
##scope
reccomending
##archy
cooked
destroyer
nude
consistency
poof
appealed
maintains
registry
venge
confirmation
implimented
recharge
blacksmith
bso
kappa
##matic
##23
##esion
##alds
hears
firs
flak
priceless
obj
foundations
coud
frustrates
breakout
searches
receives
cros
flooding
reallly
java
motherfucker
boulder
repeditive
nee
##mart
whould
forts
butts
##rols
##iden
converted
abortion
bett
##gram
syberia
replied
ducks
bien
provinces
violation
intrusive
lanes
profitable
responsibility
university
nominate
dmca
fragile
saddens
absorb
uncontrollable
interstellar
correspond
ole
##ij
##ode
##dimens
##56
##wee
##itc
melan
loan
export
##osing
prere
aging
sytem
repurch
hopped
voiceover
hunts
airship
arcad
##connect
splatter
globe
judged
lacklustre
paul
reacts
dictator
exaggerated
wikiped
bugfixes
caw
sry
##cia
##83
##isc
##isen
##reau
expere
overr
workout
##reeze
gliding
appart
entity
damnit
costed
nao
discounts
tickrate
blended
##ihih
candid
trolled
coh1
utilizing
mundi
instalment
scumbags
daggers
apt
mowing
yrs
##hl
##mely
sudo
endurance
opus
resou
##athe
gamma
##dded
damaging
greet
columb
1280x
pennies
digit
telepor
reccommended
bumps
therap
harmless
inept
defiantly
ue4
##osaurus
bizzare
zomboid
wikipedia
2ghz
bt
gel
kane
pending
tub
##ania
##idays
##amn
scul
##tel
waw
brakes
partners
glide
drank
generates
##scape
parame
thankful
esta
motherboard
psyched
mashed
##filled
maintained
saturated
##dddddddddddddddddddddddddddddddddddddddddddddddddddddddddddddddd
mexico
cavalry
giggles
scrubs
plugin
monolith
wp
##great
##itic
##asi
finnaly
superbly
handheld
refun
transformed
immersing
penet
civilisation
dogma
##vanias
sunless
criticize
inexplic
enthusiasm
incorporates
multiply
altho
gladiators
reversed
panties
mahj
unfortu
incomprehensible
ennemies
##aul
##isy
exquis
sphere
##ivo
##ashes
##weet
camped
invited
##ttes
countrys
breakfast
verison
centric
1800
caliber
enhances
inconsistant
tc
##hed
##win
##aru
unres
unwind
1000000000
steamworks
defines
smiling
##lified
focuss
hod
supportive
simular
pickaxe
##aiden
##ropolis
crafts
tablets
swordplay
calif
sieges
candle
mouths
phrases
blitzk
infrastructure
ald
dwind
##town
##bug
toast
##ston
whores
doa
##oughly
abe
unmatched
muc
##iva
intervals
accust
defended
biting
repaired
chees
50fps
painst
squir
nuis
torped
eras
mislead
parrying
exhausting
ineff
rejected
goosebumps
pt
##fold
##lad
##49
topped
##anic
##ecc
sued
preval
blaming
undert
camo
tracked
moronic
explaination
nuances
inspire
pads
summoning
bannerlord
amateurish
measures
pd2
misfortune
larian
##aved
inquis
bureau
sh1t
comfy
uncertain
lottery
peices
guilt
##aka
probs
gunna
entre
wallh
##ificant
executing
natives
null
arrange
stationary
##ropriate
lazer
aquire
geek
verification
displeasure
expirence
riveting
cpus
gum
piec
wage
##with
##oup
##essional
spies
crumb
throu
incase
shortage
monies
remapping
frees
promotes
ours
##arching
seller
forgivable
hanger
icewind
mcdon
foxy
incompetence
scientific
pursue
deceptive
passenger
higly
expedition
clubs
mahjong
kann
pip
racked
vicious
##oe
youd
ink
whith
##inte
offend
tribal
##xton
basebuilding
##ibi
hilarity
cringeworthy
vistas
conventional
attraction
##speak
modifiers
cunning
ritual
melanch
elys
fades
gist
jc3
uhh
##oles
##atus
socks
debris
allright
spor
acrob
##ects
##tys
stubb
joh
understands
medival
flyer
markip
sorting
machete
##kyo
patients
ultrawide
undes
vanishing
absoul
traders
hookers
spelled
thermal
tailored
avatars
polygon
eldar
ambiguous
cue
gpus
nook
##xed
inade
##roy
theyve
lemon
moding
##issance
worldbuilding
##iah
optimiz
battleground
advances
hypother
airfield
turismo
presenting
richard
climate
catal
catgirls
referring
violently
1994
holidays
grafik
hovering
wounded
conceived
boycot
overdone
mimic
nordic
mediocrity
dn
wounds
##foot
##iom
shading
##opment
leather
grotes
overwr
claw
hadnt
blaster
##quack
##olved
fredd
psx
auch
trusty
murderous
caters
bumping
planting
blazblue
dbd
incorporate
paladins
livest
upvote
endeav
hark
##tz
##hm
##atos
##road
upsc
willi
##adel
coke
useing
##phor
accessories
watchdogs
morally
flashpoint
stunt
mutated
colonize
influx
protected
profession
taxi
involvement
speedrunning
trophy
chipt
stimulating
apocolypse
zach
##piece
##inarily
chatter
##essively
mai
unans
gram
steve
##azation
desing
superc
##aaaaaaa
left4
infre
godly
dialo
bleh
punct
answering
authors
mordheim
##factor
devele
woefully
vapor
washington
contraptions
cyclops
inexplicably
moth
sould
tapes
##gos
##js
##lem
spain
crabs
ava
voiceovers
earns
planetside
##forge
hostages
nuked
merge
specifications
chao
denying
defaults
##mence
uncens
bedroom
magnum
stratig
incorporated
odys
trophies
sprinkled
painstaking
nw
rice
zel
##test
##bbe
alre
enabling
pear
brag
missle
instak
##lute
modeled
shotted
dollers
autop
recomending
squand
disservice
eyed
trevor
grimm
mystical
1700
tropical
container
freaky
delightfully
shmups
clusterfuck
optomized
savior
turkish
von
##yor
orgas
##agl
poet
rover
hors
uniqe
senseless
earliest
immerses
nearing
##ounce
exploited
privile
reborn
kof
emphasize
insulted
cookies
onsl
pouring
melhor
buggier
hobbit
6300
replicate
reimag
stadium
92
gaiden
jigs
##mat
theories
sting
wort
spooked
arro
plunder
strats
changer
##ualt
awesomenauts
majesty
ubish
unreadable
lobbys
targeted
glove
spectator
rebinding
tsw
fondly
snakes
bruh
lurking
downtime
incoherent
dilemm
dg
dens
lest
tee
yang
yada
##gom
##oia
##hue
##43
##yesh
thy
##ancer
##asis
##adad
asf
spat
lends
##istan
revival
disbel
##pleted
puppy
portug
confron
confront
creeper
##kki
mentions
revealing
degen
trope
repairs
stockp
ambushed
##llllllllllllllllllllllllllllllll
colossal
640x
##aidsaids
aj
nim
pals
##pre
##rame
thos
doen
unlik
overb
cramped
wakes
fluct
##phy
constructing
redef
monstros
initi
consisted
shoving
triggering
dx9
britain
manipulating
subscribe
nauseating
aggro
ingenious
mushrooms
unconscious
illuminati
californ
##quackquack
unanswered
dus
oooo
pg
xxx
##omp
mej
recieving
mang
plum
shooty
curves
deadlight
prominent
unplayble
upgradable
immig
squish
poster
locker
motors
selections
suffici
bonnie
sentine
mp3
awaits
competitor
lawsuit
whistles
desolate
edmund
##yeshyesh
gauge
hipp
##gons
##wave
thq
##itten
inception
re5
soiled
##idad
exsp
##ffer
composition
##iging
imbalance
desires
stup
opted
obama
##isoiso
tedius
critters
filth
sexist
praises
jacked
wandered
opposition
backstories
enthusiastic
shittier
slamming
quietly
pesky
airdrop
escapists
pyram
persever
baking
eco
##math
soild
##seat
##illity
##ource
ac4
##ista
slicing
embo
simulates
wink
##ango
collisions
collapse
directory
immune
wiht
xcom2
impacts
customizability
healer
capitalist
occupy
floppy
redownloaded
grotesque
hte
kir
nugg
##tive
##sky
doc
recommends
hardmode
rund
constr
skillful
##entional
sorcer
deserted
forgetable
blockbuster
nethack
blogs
2k15
dishonest
qualified
disappoints
medicore
concentrated
crosshairs
victorian
embarrassing
battlerite
reinforcements
tolki
##x768
81
eidos
##97
##wu
chino
enj
abilites
unbal
levi
##istry
usualy
particles
flanking
simulating
menues
garr
blackwell
suckered
layed
gemini
spotty
cyan
wildlands
consumption
snowy
neces
##frame
durability
##raints
##mmmmmmmmmmmmmmmmmmmmmmmmmmmmmmmm
whistle
hawk
cynical
91
homing
##esp
tokens
##alla
cheep
##urable
##ularly
suv
thereof
accused
chef
assess
solves
remarks
bossfights
majestic
sucky
##apeared
##hea
divide
facilities
qualify
uneng
ecos
sanctuary
hydra
audacity
knocks
daedalic
aurora
accustomed
left4dead
fonts
lp
racking
##cm
##otch
reles
##ulary
trunk
muh
adressed
##isted
plo
interfer
backers
realis
bitters
founder
swam
retarted
confined
courage
protoc
dogfighting
secretly
dow1
gangster
pacman
restriction
dominating
hl3
reliance
deception
liberal
aoe2
unwilling
assemble
paintings
astronaut
prioritize
aboard
##esyesyesyesyesyesyesyesy
swedish
unimpressive
##xdxd
scribblen
heel
pont
##mos
##pecting
reass
eno
gras
expend
sep
teamed
probally
hopelessly
unfortunetly
practise
magicite
wrecks
storms
janitor
revolve
bronze
awakening
commodore
fidget
aperture
dehydration
excitment
markiplier
disbelief
bible
ek
jig
vest
##lease
conj
enlight
10min
greate
grating
expecially
arsed
overarching
advers
revised
waaaaay
defuse
gunfire
duos
movment
crytek
possibilites
disapoint
guidelines
tinker
tractor
bah
nad
samp
tpp
##fb
##oh
##eart
##itted
prolly
##pts
imersive
##agons
moneygrab
guarent
guiding
warlock
interestingly
15th
greif
##shoot
clearer
arcady
silenced
boner
radius
configured
riddler
pales
beacon
rendition
disadvantages
temporarily
grateful
unimpressed
290x
insects
mhz
oly
pter
rips
##eon
##bul
thre
##icent
beau
notion
nege
neph
##played
lemm
cocon
killstre
rightfully
undercover
varieties
weeaboo
occuring
cubs
midway
dragonborn
##puter
respective
serviceable
announcer
dumping
obtaining
reinvent
fantasies
berserk
incarnation
notorious
prevalent
hypothermia
hiest
##atur
toll
##isics
butcher
##thest
exposure
goto
miniscu
opion
differing
##taining
starring
hellblade
damm
learns
duplic
futher
heartily
botched
nuanced
astro
remastering
sunset
centers
hooker
##falls
bumped
permission
dx12
hl1
recoment
penguin
3h
850
d3d
hs
omin
rider
sire
stakes
##sept
dolls
buss
##irs
##ighting
##iem
ample
overnight
waypoint
revo
revise
fpss
assh
broom
savegames
strait
cub
##cessary
##eshit
unlikeable
creeping
catac
spams
spammers
sentient
scamming
virtue
cinnam
caveats
clutter
sidequest
ecst
hindered
magazines
##keep
kilome
flushed
devastating
ounce
gigabyte
acutally
unprof
unappe
miniscule
8g
ef
fathom
hunk
nun
utop
##cies
##hen
##200
##icly
##icide
buil
gover
arno
feared
velo
agony
sehr
charms
coven
amazes
devote
curator
remn
negot
transm
epicness
burger
doubles
dooms
processors
greene
scrollers
sacrificed
ethan
lifted
avalible
exhib
compliments
comfortably
thsi
devlopers
enviorment
jeez
fatigue
##awakawak
blitzkrieg
odyssey
tolkien
cq
roses
##neck
##ucks
##bie
toon
stamp
unmo
poking
actaully
steamapps
defy
watches
avgn
discern
confidently
##000000
narratives
leaf
##ounge
dodo
voip
flights
populous
politically
lads
snowboard
dispatch
distinctive
smells
flicker
attribute
finnished
takedowns
battleroy
gandhi
gioco
prehistor
sudoku
arrogant
bittersweet
cuss
dj
dah
erect
fried
jag
pans
##lords
##zd
##mem
##isman
forty
##etical
ascend
arise
##ashi
##ipher
flipp
kinder
dupl
sandboxes
offerings
19th
concur
silvers
lenght
mercs
tightly
observe
dust2
separated
mythos
stalking
saddened
bolts
gratifying
##gtx
synergies
spartan
maddening
insignificant
vocabulary
scribblenauts
cari
ked
kens
##fc
##fil
##zt
thehunter
wh40k
sugest
unseen
##inda
whoa
horible
emersive
wold
##isingly
chock
colin
111
productions
chatting
derp
hiking
warframe
blending
buffed
rhyme
reinfor
gratuit
exaggerating
##nnnnnnnnnnnnnnnnnnnnnnnnnnnnnnnn
vpn
immensly
trinkets
discontin
onslaught
d2
mn
##74
re6
chairs
shades
compaired
rode
realizes
perce
awesomely
hogs
regu
snark
relaxation
##aaaaaaaaaaaaaaaaaaaaaaaa
undeni
giggle
chicks
gimme
lua
ryan
utilized
fundamentals
extermin
charcter
pawns
crosso
unengaging
prehistoric
##tal
thes
shipping
traded
overcoming
##ueling
intu
minec
blinking
smite
talisman
kickst
tdu
preferably
##ioh
localization
torches
irony
reloads
colonization
dynamite
juven
dd1
jerking
dreaded
responsiveness
trendy
inaccess
##girl
fricken
terraforming
overstay
awesom
puppet
potencial
bsod
cinnamon
911
kra
tighter
umb
yog
##gly
##itve
sod
##righ
dearly
ork
noice
unjust
arme
welled
strater
twisting
worldwide
invites
finely
smoothing
toned
wana
viewpoint
turkey
oddworld
climbed
activating
replen
brigh
buckle
infuriatingly
jetpacks
outlook
slayer
unbearably
indicators
gnomor
rooster
mitig
absolver
jigsaw
sufficiently
undeniably
glee
hir
##fires
##review
##ota
onwards
##chen
##thread
lewd
##igent
afterall
cole
differentiate
regional
typed
medals
choises
similarity
copper
aimless
tabbed
completionists
cringey
xenomorph
declares
optimalization
rehashed
squeakers
nurse
##hotsuper
promotional
##dimension
ecosystem
unappealing
##ek
##bone
tokyo
probe
diagon
manif
graphs
chara
fave
##osexual
explicit
lawn
pho
controling
protagan
##udge
suffoc
supcom
undet
##6668
cultures
tomato
loneliness
reckon
lockpicking
vengeance
lust
lamp
m16
##cal
bei
##aca
chim
mabye
lel
adj
fel
poi
##psh
thematic
bites
warch
##pering
singe
teamate
effing
frenetic
complic
grea
packaged
suggesting
weirdest
imagining
arcades
demise
foods
grandm
accomplishing
riven
substitute
buffalo
trollers
##cheating
nickel
oxen
diseases
stumbling
kenny
album
toddler
mesmerizing
swallow
caravan
contemporary
nuisance
california
gnomoria
fpp
##lor
##dys
##cont
chic
shab
recommen
throug
commited
gene
indirect
brend
rocking
boxed
marble
linearity
unrefined
profan
joyful
metroidvanias
jealous
industries
flagship
ak47
bf3
fascinated
3440
detracts
robocraft
zerg
gtx1070
73
lt
mats
rumble
##wares
engr
##oshd
afte
sewer
##earth
fins
carm
60hz
epil
##coal
climatic
caesar
innovations
##lette
parachuting
fortunate
redoing
broadcast
analogue
graveyard
seperately
1980s
stubborn
bm
billy
dumps
eso
tch
xmas
##uly
##cans
##bands
##inger
##anche
onward
stored
whic
soley
shank
loathing
##lub
careless
achieves
solidly
smokes
fireballs
sorrow
grouping
plainly
disheart
pinned
volumes
2600
territories
fragments
documentary
##lolololololololo
occassionally
runescape
connor
forsaken
cass
diction
jeep
nag
rans
vvvvv
##gee
##oi
##cion
hab
moe
##antically
unsol
##agion
newell
newsp
dident
disorder
slapping
##liant
depiction
herd
nameless
pathways
gearing
##nnn
joysticks
unsupp
commented
derpy
semblance
jeff
rena
robbers
motivations
guilds
punkbuster
template
melted
ancest
bark
riddle
tk
##cores
##year
##aro
bef
##unately
doin
exager
unkill
mug
recur
bytes
betting
##ignant
fanf
explorable
reduction
behaves
1100
advis
heroin
forgets
trainwreck
escapes
1930
bombard
strategize
mashup
moms
emulation
accelerate
extraction
coordinate
adequ
ogre
hatchet
epilepsy
divertido
##functional
rlly
##nig
##camp
##best
chunky
everyway
ima
aftermath
wayne
gotham
steak
##joyed
2020
##rae
hones
visibility
##ogen
meds
shep
oppurt
tonne
marking
layered
scrapped
assassinated
voicing
psychic
bunnies
960m
paywalls
extends
santos
unistalled
tumblr
inovative
mutliplayer
juvenile
##hotsuperhotsuper
bak
sv
tapped
##mil
##rise
shipped
manh
bugbear
downward
sys
instability
attro
##ggg
phy
inser
relating
passage
apology
firepower
transfers
equals
unpop
dwarfs
mythical
reconfig
definitively
cheeki
arbitrarily
regenerating
belts
templar
baffled
razer
##alleled
disorienting
conclusions
edi
lsp
sank
##pso
##x9
tht
##very
notic
lips
unbalance
cranny
planted
quiting
battleeye
attackers
literature
hotkey
1400
preparation
ffa
juicy
pinpoint
subjects
expertly
corporations
dreary
nauseous
defenitly
teamkilling
jimmy
principles
louder
stumped
unlikable
7d
cord
lined
nancy
##fol
##pic
##63
##87
##orns
itching
##reens
##chem
alw
modifying
clas
definate
##icted
bane
hellish
woven
battleborn
sidekick
voiceacting
##holy
continously
parod
dealbreaker
collective
arcane
2500
sickening
tarn
lining
raving
2400
bandage
motherf
radical
politic
labour
guardians
paddle
clocking
pillar
simplif
sacrificing
advertisements
ethics
handcuffed
merchants
fractured
expierience
oxenfree
5min
5hrs
mou
##hib
inapp
sovi
worship
lod
20min
##ooth
eden
booring
rufus
stategy
schools
weirdness
1940
referred
bottlen
lantern
dominion
ensla
emergent
dissappointing
rumors
sweden
libary
obscene
indefinitely
consecutive
exquisite
cgs
dred
mama
vor
##human
##oung
##vell
##acent
##unes
eny
trace
outcast
##ems
couldve
neverhood
strag
syst
incess
probly
telltales
planing
interactable
macs
premature
zeroes
agreement
compatable
##runner
arguments
anticipate
breeki
lamb
adopted
counterparts
##itbuyitbuyitbuyitbuy
rooftops
##clickclick
algorithm
640x480
velocity
bil
kun
vie
villians
yap
##fi
##lit
ank
gettys
noch
cranked
intial
sao
poise
##ummy
aga
##berish
classified
readily
##trough
freerun
greece
##ocative
performace
recomendo
availible
noteworthy
##guy
grandpa
unsu
3570k
laden
unbelieve
citadel
induced
injuries
freemium
##avery
clowns
jugar
turtles
cigare
columbia
dialoge
##cheatingcheating
3am
duct
faded
hmmmm
v3
vx
##handed
##zie
##leg
reacting
canyon
enforce
dong
anyones
pregn
strider
##achine
attent
cuteness
valiant
placements
##alypso
eugen
viewers
writes
robin
statues
displaying
motivate
muliplayer
corsair
subsequently
asthetic
##vvvvvvvvvvvvvvvvvvvvvvvvvvvvvvvv
silliness
protocol
unprofessional
aow
daw
dwell
ky
mam
wile
wurm
##fox
##pen
whin
##adda
likewise
weild
weary
unbox
unholy
spont
arth
bugy
agains
impor
implic
##dev
wrc
jolly
shotting
eventual
logically
milked
linking
conviction
condem
buckets
assumes
scorp
##raine
lungs
deliberate
progess
neighborhood
herbiv
aro
bid
kal
pou
##nx
##uz
##gling
##tra
##cents
##bf
##84
gamety
inmates
inpro
shards
unner
overfl
waypoints
litle
bord
impecc
surge
##getic
baned
constraints
neglig
ahve
movesets
blobs
ruled
commenting
bundles
panc
translates
unkown
##holding
fml
technological
##fighter
relentlessly
machinery
##9999999999999999999999999999999999999999999999999999999999999999
##wwwwwwwwwwwwwwwwwwwwwwwwwwwwwwww
outnumbered
unparalleled
##oshdoshd
unkillable
1tb
8x
ib
nid
saus
##nip
##ucing
##input
##ersed
abhor
sped
expan
sayin
thres
##zzle
starforge
##umping
retire
battal
gtfo
idling
inital
technic
richer
farmville
hij
historia
patr
demonstr
stabil
determines
mortar
dota2
methodical
doctors
decreased
fandango
vigil
##bbbbbbbbbbbbbbbb
knifes
exponentially
untouched
squandered
dere
feces
gaw
munch
##nic
##bos
##inav
##erent
inherent
playd
##ilated
mudd
##iceye
intergr
darkzone
satir
costly
dung
##www
arkane
descript
concider
pointlessly
##bugs
determin
integral
halluc
junkie
##flix
scouting
succesful
vessels
inconvenient
luxury
circuit
##moneymoney
renaissance
lspdfr
soviets
hive
laps
osc
notifications
moaning
alll
frying
uneth
wayyy
##ansactions
incl
horas
##berry
insu
dud
imma
showdown
##60m
battleship
concise
stuttery
##etermined
magnet
hyperdimension
bounces
blaze
3770k
python
parameters
phoenix
765
fiend
ire
kay
kyle
naugh
##wp
##verts
asin
debut
surival
node
ard
aft
looses
serios
runners
minion
triad
devolves
explic
spacechem
placeholder
##commend
##neys
imaginary
modernized
ballistics
unnec
padding
delighted
applications
shovelware
sfv
indicates
##manship
deffinetly
fluffy
synergy
##tttttttttttttttttttttttttttttttt
ftp
proportions
stagnant
enviornment
reservations
countryside
inadequate
rundown
ominous
gettysburg
gag
ks
lmb
pare
##hting
unecess
trite
saiy
awarded
lagy
disco
beatable
figur
basiclly
shader
eyeballs
battlefields
ticked
refreshingly
titanic
msg
disappointments
fedora
##ifiable
artistically
dismount
interruptions
exaggeration
machinarium
unistall
mintues
##ophobic
dictionary
hots
jens
m1
sic
wol
##fh
##lich
##his
##kd
##level
beth
##usters
##urity
unad
gamespot
compa
interu
sinks
underest
##lift
elites
ranch
##elic
passwords
schem
furries
trainz
continuity
tradem
jeb
threaten
stretching
smurfers
summoned
polygons
prettiest
poetry
ubishit
nephew
kenshi
3hrs
dumber
kag
lor
wright
##iage
##pin
forew
somet
frantically
##gey
plau
shoulders
apprent
helpfull
collabor
confl
snatch
distress
screensaver
netflix
##heat
replaces
blinded
outdone
jacksept
blurred
warmong
ownership
eliminated
paranoia
somethin
dexter
fot
kalypso
uck
wie
##iat
##ikes
##have
##orney
##omn
##alis
upbeat
##ivel
saber
scal
desmond
##erian
bores
useable
attain
hoards
conceptually
reticle
variance
aparently
infinate
midgame
respected
psychotic
monotone
tortured
neighbour
siblings
stratergy
shepard
naughty
380
dcs
nast
##uum
##pel
rebalance
##chet
##oodoo
suriv
evenings
amid
##osly
looo
fuse
poetic
##ivments
charlie
hobo
eleven
tutor
strafing
facepal
writen
irrational
strategical
##crash
disliking
##mersive
representative
assumption
recruiting
wheatley
embark
evrything
inexperienced
##uuuuuuuuuuuuuuuuuuuuuuuuuuuuuuuuuuuuuuuuuuuuuuuuuuuuuuuuuuuuuuuu
bueno
selves
##fuckfuckfuckfuck
charismatic
overcomplicated
satellite
shabby
unsupported
cks
ned
sas
sich
tint
vint
z1
##bable
##erker
rebuilding
onboard
##adic
alfa
suite
compound
heals
manue
preety
pricks
agility
opon
##onded
##ola
##ggs
helmets
##avle
snaps
excellence
refining
landmarks
availability
##cius
traitor
creatively
##portant
midi
arrest
fiber
approachable
ffv
cdn
resolving
discussed
##ribution
memorizing
moderator
##function
dressing
reckless
##ssssssssssssssssssssssssssssssssssssssssssssssssssssssssssssssss
observation
valkyria
ineffective
1hr
b4
vortex
##gie
##rom
##alted
##allly
abus
traction
compact
contagion
feast
ples
scaring
prick
worths
realist
brad
missons
flappy
obv
inflict
garfield
submer
##hhhhhh
varity
essent
robber
madden
craftable
##mbled
sixth
001
frogs
1993
obliter
mirage
delving
cruising
porno
aimbotters
exhil
interfere
marginally
vigors
inconsistencies
anomaly
protaganist
680
71
ariz
dpi
fles
gme
tatt
wt
##pment
lifest
therefor
spoo
hast
goggles
recapt
fukin
bugger
interiors
addic
waff
partic
muslim
gunned
believes
scenary
##placed
specialized
rainbows
dogfight
audiences
quirk
##job
viruses
uhm
##buybuy
wizardry
clarity
maneuvers
crpgs
multiplayers
council
acctually
cluncky
negev
unethical
marsh
##iating
##tic
##million
##eny
timew
prohib
impres
differant
##appak
fob
##awesome
15min
confess
gtx6
summons
freshly
1300
crews
binds
southpark
truthfully
pretends
speedrunners
melting
succesfully
ditched
maneuvering
extremley
melody
perpetual
uniform
brillant
mojave
hodor
squishy
9th
bj
vous
##nen
##uced
##lot
##date
##bour
stared
soak
chu
upp
unsc
##aux
##activ
workable
reser
##aah
buildup
incest
persists
puzzel
gloss
elusive
winds
stucked
possitive
burden
demographic
booker
bombarded
hyster
sample
axiom
iracing
rivers
shifted
bouncy
repetitious
tailor
heavens
waisted
vulgar
photoshop
folders
blessing
chemistry
kurwa
evaluate
shrug
crossover
82
gane
gank
kor
mice
pimp
rb
ses
##uating
##boo
##kn
##jan
##onst
tommy
stash
halls
##ala
witht
liken
##erson
##iris
ampl
diarr
overloaded
poignant
scot
blessed
##former
invul
freaked
greens
tread
emptiness
bloat
completes
starships
rotting
zeus
threatened
demanded
specifics
reactive
blanket
sr2
ryse
keybinding
unchanged
mileage
grainy
symphonia
touted
framedrops
reptitive
##bbean
5fps
cot
cess
fier
lows
wd
w8
wut
##ram
##itative
socom
##rians
upr
unused
spitting
heed
##anding
wholes
usally
wherein
residents
##lif
entir
##hogg
##score
##plat
logos
advertis
mutations
18th
disapear
erm
oceans
foliage
hairs
plagues
necrod
durring
embarassing
umbre
armello
jacksepticeye
dna
fas
hier
mone
yose
##press
##xing
##jn
comme
##amer
mole
prequels
prote
##pley
challe
gunfight
survives
makings
promoting
yeh
duper
refrences
beginnings
deserts
predetermined
##pubg
nuance
silky
##killed
pleasent
chilled
mysteriously
memorization
tornado
750ti
dummy
regrett
tissues
finesse
lemmings
arizona
bz
##gm
##tens
##cp
tow
##urating
someting
loli
preheat
imc
imitation
##agame
agr
intertw
slaps
glue
purge
annex
snails
refill
coda
touchscreen
airships
grounded
signals
gripped
ceases
##iments
##bucks
replies
gabriel
organize
mcrae
proudly
revolving
slidebar
pitched
retaining
incorrectly
contemplating
##clipse
imperfect
chiptune
attrocious
nidhogg
280x
c64
dess
eclipse
junky
nagging
##76
##isis
reinc
##alm
anoth
shirts
timely
unending
propper
outline
wouldve
conto
crane
vech
graphis
##grow
defo
laura
espically
damages
carefull
strix
queued
synced
uncanny
litterly
propably
##onymous
spanning
resemblance
scanner
pricy
barrage
chalenging
roulette
consumes
obligatory
##pewpewpewpew
##openopenopenopen
uruks
starbreeze
skyscr
unresolved
fright
pard
##bin
##kits
##ndo
reap
soc
upped
mae
##ilit
spur
grants
digress
lotta
sev
usability
##ials
misson
tripple
hoxton
drains
indicated
retribution
sniff
performances
sands
possessed
sticker
heavier
traject
repeatitive
scoreboard
feeds
safehouse
##peed
discussing
disturbed
terminals
sociopath
substantially
jogos
templars
slowdowns
elysian
necrodancer
gaz
nihil
ohhh
sut
##tec
##mnt
##hoo
##92
##jet
beholder
habe
##ecy
doens
chart
missles
kevin
##web
boiled
bananas
entities
survivalist
yells
blackscreen
scha
essay
unrelent
2015coal
unsus
estate
villager
irons
palm
securom
##half
measly
extraordinarily
uniforms
gnomes
thouroughly
painstakingly
vvvvvv
ebola
hater
riff
sz
tents
##zation
##isec
begs
atv
upfront
unm
donation
##achable
##ountable
##zzz
genious
puzzlers
discri
fred
apon
examine
repeative
boob
unremark
joypad
doorways
synops
experiments
homosexual
horrifically
mesmo
organs
ffxiii
##pppppppppppppppp
repititive
intruiging
instruments
rooftop
ussr
infrequent
gratuitous
epilogue
6ghz
fkin
hone
lens
##iates
##ovo
rebal
bein
stroll
##cho
anoy
outland
becase
intre
adicting
downer
shotty
snappy
eva
satisfies
collectable
urself
borderland
tediously
wih
doorway
volc
preordering
religiously
flickers
overhauled
vaas
avalanche
accompany
paragraphs
xxl
2560x1440
wedding
davey
kairo
torpedo
caribbean
grandmother
battalion
##appakappak
2hours
550
cp
ers
fv
kee
uc
##hark
rej
##icially
withd
##idth
spaced
acually
plow
ques
actress
taht
##quish
consult
probab
couse
prosper
simulater
heretic
menue
unplayably
snag
snipp
##ocr
audit
dissapears
midget
##tiy
rebooting
unblock
dotp
motivating
anticlimactic
duplicate
reincarn
ctf
r7
ria
vu
vile
##olf
##oline
##error
##lll
##itory
##ilo
quaint
tease
teab
##ndered
highl
hoe
courier
despicable
credi
dune
pluses
presume
bullied
bloodline
bloodlines
euiv
buses
wolfs
osiris
blinding
disgustingly
females
reflections
ensures
engagements
drained
##euro
mathem
curent
lunar
troublesome
conventions
##ulsive
##dasdas
diffucult
avec
alleged
sabotage
uncensored
unremarkable
synopsis
5gb
670
pum
pairs
##fed
##tower
##md
##611
##qi
##etary
playful
shouts
teas
dese
blas
singel
underated
musket
portable
solitary
##ttt
smoothness
bulldo
oppressive
frontline
cyc
scraps
masher
22cans
narative
liberate
nicest
motorbi
masochists
paranormal
lizards
apperently
##qqqqqqqq
carnivores
interresting
possiblities
utopia
brendan
adequately
cact
ero
hinds
kate
mary
sg
##mage
##kay
##years
##26
##icions
beet
##omer
notices
##chan
pep
##lol
interconnect
robert
stuf
glith
cams
##cesary
honour
100fps
francis
cod2
distorted
goood
codex
##logical
addresses
accidental
reflected
soooooooo
recreated
devolpers
mmorpgs
recordings
##ettear
##funfun
principal
austria
charachters
acknowledged
overwhelm
catagory
impeccable
vintage
##nad
##arina
shear
1000000
spol
grades
ada
##ishable
vey
difficul
warrent
excer
corre
popups
impressively
markets
pripy
digits
dodges
purposefully
hinted
sunlight
formulaic
clockwork
goddess
arguing
rabid
tossing
bathtu
discouraging
bulky
nikki
eveything
todos
sentinels
unnerving
amplitude
3half
bau
gps
lang
lgb
lured
pak
##uits
##gence
##tom
##bec
##ionic
chern
##iron
uninst
unarmed
harddrive
sincer
shorts
purest
zombi
indi
plata
effected
morgan
griff
timmy
unsalted
suposed
masked
cafe
publicity
boomer
hexen
downvoted
devolopers
spiderman
jewish
bandwidth
juggling
##rivating
resurrection
trauma
dracula
retext
amalur
johns
overbearing
pripyat
2b
dans
fis
ganked
kau
pus
tying
##iased
##inge
reinst
reception
bearly
stances
chor
shade
##cell
allthough
allev
10mins
recap
seeks
##istical
backlog
blamed
##giness
chang
peril
pcars
persistant
monty
hopeing
dripping
100k
meny
##worth
totalb
numer
microw
appearances
marvell
moveset
benif
ruling
elementary
##running
ddos
frie
sympt
deceived
utilizes
oversimp
unchall
airports
multiplier
1984
##yoing
razor
quintess
unicorns
orientation
pecul
wallhacks
inaccessible
jensen
conflicting
schafer
4h
425
512
cn
eag
ecc
gp
jumb
qw
tatical
##ifully
##oz
##rical
##2d
##itable
##aco
buds
exos
moan
##ilot
10h
spie
overse
sewers
taunts
minuses
disables
shouldve
flim
freeplay
constanly
carter
indiff
detailing
luckly
specialize
trackpad
##zech
traveled
##20k
noticeably
trucker
bombed
respectively
humourous
unbiased
plaguing
expressed
professor
malicious
saddest
poisoning
barring
pulp
submarines
motorcycles
obligated
ummm
hotfixes
cheerful
accumulated
minuets
overheating
##dlcdlcdlcdlcdlcdlcdlcdlc
apparantly
concluded
##gomgom
confronted
3440x1440
trademark
apr
bip
ei
kam
mamm
s2
vai
voodoo
wro
##dling
##aque
##race
##rze
tog
##ooking
anch
orph
cray
previ
##usions
##intuitive
tryin
surve
incurs
joc
##berries
handfull
##uctive
##troo
##iba
suckers
specialist
antics
sweating
nerdy
estimated
vastness
32bit
election
pitty
megal
plaing
kar98
grossly
manufactur
pigeon
acomplish
horseshit
diarrhea
aly
bands
eme
gou
jams
qwer
rm
ticking
wc
weep
##rot
inane
reverted
bea
##ecks
abn
abomin
everyting
plaus
wayyyy
couldent
backbone
##bob
creaters
perfer
hacknet
fo3
assists
wastelands
##ava
pickle
alphab
sheild
##show
programing
pena
criteria
experence
climactic
circa
4790
reactor
hinders
vertigo
decreasing
stilted
calculated
defenitely
locomot
##00000000000000000000000000000000000000000000000000000000000000000000000000000000000000000000000000000000000000000000000000000000
skiing
gibberish
dolph
introductory
spreadsheet
archetyp
280
aura
dak
eldr
tlc
zany
##51
##wi
nother
doses
comers
alta
unne
##igible
##owness
revision
fak
imply
flares
teamspeak
classify
relase
discs
passages
crapy
citys
##ibl
erratic
touchy
turds
##odora
repeatative
regarded
sunny
##40m
patron
spectacularly
##person
aggression
headshotted
draining
acquiring
recreating
ethical
geez
meshes
expeditions
rdm
ascii
shuffle
##tronics
custimization
threshold
explicitly
ehhh
fxx
kent
midd
pz
rains
rfactor
vas
yume
##fine
##iscover
reun
##icon
soem
fridge
spans
outa
grunts
groove
compel
disast
guac
verson
insists
carpet
##mmm
choise
directors
fireworks
motives
squadmates
midst
genuinly
southern
succed
momodora
fortresses
categor
coward
cripple
unfolding
netherreal
insanly
rebindable
warden
tranqu
##abilidade
portrait
penguins
cereal
##rubrubrubrub
elitist
restricting
terible
satirical
peculiar
jul
mari
pased
vader
##58
##ndry
gameing
##itutes
##alls
withstand
##check
chica
meager
unem
unwe
grueling
##ighty
contend
implied
slope
perfecting
helm
boast
campo
incremental
duped
apo
kicker
16th
madman
sleek
impacted
ocass
lucius
zooms
recovering
suspects
filtering
shrine
grammatical
charactor
wenn
clunkiness
taco
##xxxxxxxx
nitpick
shoehor
prophunt
mcdonalds
f3
kim
taps
ttg
##dri
inp
playes
##acc
recettear
dipping
pond
teir
coach
starte
##moon
strap
##boi
monk
mony
attorney
assualt
titular
discrim
droid
##cci
continual
evan
firewood
##eeeeeee
bullying
succession
##odon
tenth
blueballs
silencer
fiver
facet
tiene
arrowhead
warmth
documented
emerge
##icycle
unconvent
hoarding
apocolyptic
increadibly
inquisition
inappropriate
hindsight
batch
cured
gid
imedi
sass
tard
##lon
##luck
##aire
##72
##inates
##anha
##lyph
forrest
cone
mop
atc
##opop
deactiv
trumps
spen
scouts
simm
intoler
##love
finshed
releas
lookout
pleb
dueling
shipwreck
interacted
barry
humanoid
splat
retros
gateway
cocky
declined
employed
distractions
laziest
dubious
characte
mecanics
occassional
juggle
deemed
hammers
crammed
outdoors
brighter
johnson
cgi
mace
nach
vangu
##ez
##hell
##halla
##arak
rebound
stap
##amari
##opia
loos
wayyyyy
slain
defies
warped
supplied
attend
accessing
opener
hells
deterior
droped
##pring
stealthily
executes
stunlock
disconnection
ff13
pools
invisable
skewed
enhancing
consequently
##30k
buttery
universes
penalized
poisoned
jogabilidade
gentleman
acheivement
paladin
multitas
therapy
dexterity
umbrella
caster
eine
farts
gz
lump
pend
##gig
##making
##96
##wolves
##qs
thurs
theif
tooo
##ettes
##chair
envelop
orde
procl
leans
wouldent
muck
recy
##ichi
serene
peopl
mined
yearly
slings
resh
oldest
bigfoot
relieve
hateful
transit
tracker
legions
1950
implements
admitted
bonkers
##lusive
##reciated
merry
##cloud
bumper
debacle
transported
throats
thoug
thrustmaster
evokes
defenetly
lightsabers
routinely
dissatisfied
##stroke
plodding
snarky
chicago
##growth
unsuspecting
bcs
rdr
yug
##hj
##2play
##ench
##aya
whacky
soaked
##aci
justifies
wei
goku
argh
manny
mayo
guise
devour
plebs
handgun
handholding
elex
##ibble
textured
firends
encou
squat
viewer
household
suprises
unnot
planeswal
declaring
authentication
assignment
unwield
slammed
decorate
exterior
##eeeeeeeeeeeeeeeeeeeeeeeeeeeeeeeeeeeeeeeeeeeeeeeeeeeeeeeeeeeeeeeeeeeeeeeeeeeeeeeeeeeeeeeeeeeeeeeeeeeeeeeeeeeeeeeeeeeeeeeeeeeeeeee
motherfuckers
##iendo
guerilla
monstrosity
profanity
lifestyle
aos
hz
jc
jake
jane
##cup
##pread
##has
##enge
reform
buid
shiet
myers
conection
dea
enou
encom
##iler
howe
sc2
##ivley
decipher
handing
swarming
redacted
flys
##guards
1337
arranged
equipments
jeux
procedure
fascist
shouted
##yrus
unimportant
validate
shittest
trivia
dismay
evoke
apologies
monetization
circuits
empathy
foresee
candidate
teleporter
discontinued
fb
kite
nood
tastic
wick
##f4
##low
##erd
toget
reapp
##etes
dogg
me2
mele
fraps
##gear
sper
recieves
adhd
stea
deconst
oldie
modelling
accessable
##mming
limp
evidently
futile
fallouts
mister
pleasently
##gungun
equiped
spinbot
gba
stormtroo
sacrifices
busting
aquired
roofs
palying
##opedia
##cancer
douchebag
evaluation
uruk
whoops
wisdom
disrespectful
disciples
peeled
cawthon
privilege
##huehue
mejor
lgbt
0ghz
bail
fou
gently
##nics
##fj
##54
##xp
##enes
reel
##owee
##roe
##rious
spits
##eman
agar
disks
killcam
strapped
keyp
artworks
lakes
30s
cutest
##elent
civ6
locals
booze
repeatable
galact
##ahahahh
estimate
streaks
miy
suspens
padded
##builder
palace
##cules
authority
g2a
railroaded
swapper
chalk
##strings
bluntly
elephants
##robrob
##cccccccccccccccccccccccccccccccc
pentium
aussie
asinine
260
lament
mge
oz
tether
yee
##uld
##tick
##52
gamestop
##ommend
##acial
coma
##ulsion
overboard
crud
prefect
pean
miners
hards
developper
slipped
crashy
brands
tripping
bigby
lastest
solvable
feats
deathrun
snuff
evac
truley
showthread
biker
dissapeared
followup
infinit
duties
lays
disappointingly
##heart
initialize
##blah
brian
situational
publicly
hiatus
privacy
ducking
unevent
censor
fabric
astonishingly
stylistic
widespread
neckbe
decorations
versatility
infiltrate
##loslos
facepalm
fbi
glut
jade
miche
tg
##dles
##rus
isso
reich
begged
##rolled
canvas
bury
neve
fry
spill
grunt
becom
craze
##agana
##iph
lowers
satis
evocative
popc
##computer
respec
trashed
floats
macos
immediatley
silk
creeped
cleanup
70s
disconnections
suns
mommy
beastly
ts20
desperation
aztec
ctds
1050ti
frustraiting
density
bn
cada
gau
hra
ld
vt
vin
##hift
##uter
reper
whales
deagle
agile
litte
farmed
wraps
wargames
fling
chell
appreh
definantly
accessibility
foi
cutsc
gunshots
checklist
fireball
presets
baron
flashbang
blasts
rollback
networks
neatly
vania
globally
reboots
##system
drilling
oyund
inexpl
stereo
rivia
cabinet
seperated
rx480
papyrus
depicted
escalation
purchasable
unhealth
conservative
pimps
greetings
boycotting
freddys
pregnant
bf2
dall
pb
pess
wating
##tor
##tastic
##720
##isse
##lement
##unte
wasent
shred
mead
allmost
enam
upstairs
probo
evenly
digest
arisen
plut
sakes
clin
rofl
finch
##achank
puz
##fuq
experianced
devotion
flung
untold
designated
muster
remaking
aviation
resting
inflated
##aughters
minimized
satisfyingly
shuttle
aaaa
accomod
##888
skinny
trooper
cdpr
dowload
##ologist
msaa
shelves
octane
supremely
tilted
ferr
derankers
wepon
polarity
diffculty
redesign
fantastical
unpopular
marvellous
aight
fags
gle
lect
nade
rational
ul
##uj
##ull
##ogy
##cade
##53
##kets
##xy
##esque
reuse
##icl
beers
##idential
burr
##antely
abond
##arten
##artic
gry
##oment
compre
##ights
pritty
wells
opaque
killin
20s
20mins
sled
slavery
unto
defini
obvi
hoor
annyoing
atmoshp
##bbled
##plz
companys
##design
sellers
harpoon
trusting
misplaced
royally
beneficial
jumpscared
revisited
liberation
uneasy
lazers
perfectionist
fairytale
authenticity
mudrunner
venice
announcements
downfalls
portrays
deffinately
directing
slenderman
vendor
graffiti
recurring
insufficient
765611
bis
cj
hinter
jac
wils
##ifull
##jud
##repres
##ani
##lets
forb
sob
buts
withing
chine
mein
##blems
spher
contols
plac
plains
bying
fum
tel
cozy
shitter
issuing
##divers
monoch
founders
bollo
depos
standout
weebs
redneck
##plant
##gby
cashing
spotting
vacuum
lengths
streamed
cpucores
irresp
mirac
xenos
recommanded
relied
##market
frenzy
oversized
arriving
foreground
jammed
gadget
nitro
coordinated
laundry
revelation
overclock
conveniently
seizures
instrument
nevada
conveys
replenish
hiragana
unchallenging
alyx
unconventional
ainda
czech
jill
ler
lum
m9
turing
tacky
##gp
##club
##bbly
##rat
##rap
##rilla
##0o
##metric
##itarian
stur
whitch
##allity
##illions
##usted
shard
##aining
muff
expec
managers
loooo
afterward
##aban
offence
offroad
hardened
waay
broth
timesink
genere
##itches
kek
smgs
probability
tottaly
typo
classy
bothersome
armoured
headbut
posible
painfull
rams
euphor
hypers
2500k
pencil
1960
springs
astound
centuries
##tih
zeal
stalin
ducktales
dissappointment
tackling
harmony
subtitle
uncovering
einf
adapting
shifter
bogus
handicapped
composer
pedestrians
vassal
scandinav
m4a1
unrelenting
thursday
atmoshpere
kiw
pag
r2
x86
##lining
##rously
##jd
gameworld
reopen
stfu
playi
neur
loathe
spar
veiw
charak
steamos
pudding
rema
espe
avar
deton
herbs
##ogp
armada
gibs
certainty
meditative
occult
motive
seasonal
businesses
configuring
sanbox
spellforce
overlap
##ablity
pilg
mcmill
stalk
cruiser
pedal
katamari
seamoth
regenerate
settler
teamkilled
flamethrowers
inconvenience
redownloading
outdoor
hahahaha
compromise
gamepla
excruciatingly
##greatgreat
focussed
battleroyale
freerunning
bathtub
eldritch
4am
bish
dandy
mfw
nas
pagan
##car
##bus
##pecially
##rates
##water
##escri
##stood
haves
##alty
bubs
shoul
##agne
pods
scoped
intermit
rese
everythings
kindof
registers
rugby
metres
snack
saturn
copious
equipping
murica
verbal
unsur
lenovo
17th
doublefine
innovate
unforgiv
explanatory
rankings
troubled
##woowee
narc
essentials
tolerated
danm
martin
comprar
participating
melodr
swiftly
gameply
monologue
psychedelic
killstreaks
carmageddon
ransom
enslaved
wilson
baker
nomination
rmb
ucking
viii
##gil
##casting
##bably
##aten
##itudes
meld
dept
anywh
everygame
dign
overated
manor
peo
##abre
minib
reserved
horny
##raf
attatched
##lips
banged
entice
win8
beliefs
ramped
terran
counterintuitive
appease
boardgames
peripher
merged
tempting
stealthing
atmospheres
230
redeemed
gradual
hammerwatch
recruits
subtly
strokes
##iyor
elevators
beamng
santo
enraged
mimics
clunkier
montreal
stems
lmg
ascension
monument
counselors
replayabilty
expereince
zachtronics
motorsport
ecstatic
saiyan
netherrealm
inexplicable
bollocks
amend
bw
h8
jp
jab
kami
oa
oot
ration
sind
##file
##oto
stoned
##omo
##usting
maid
spire
acsess
mucho
saver
byz
modular
peli
bitten
nothingness
optm
caracter
humong
retired
scenic
parall
##plus
schiz
pathetically
complexities
airlock
motogp
norris
microphones
gameranger
scrape
targetting
unders
sensical
caved
nooo
advancements
becuz
romans
oceanic
absurdity
dominions
dreadfully
hyperbo
butterfly
peeking
##euros
devolved
saddly
simultaneous
nexon
delicate
7700
almighty
amigos
chemical
tweeks
coincidence
catastrophic
shithole
bartender
asymmetrical
acrobatic
obliterated
encompass
##wooweewoowee
3ghz
naw
yen
##mr
##mine
##pock
##hf
thug
##mey
##ester
##layer
hac
##unities
burial
shure
##amatic
##imity
amasing
##user
cocks
offices
imperium
survey
suppress
swapped
100m
excre
clickable
sceneries
passport
despawn
harves
ceased
scams
crawled
sunken
ggwp
captivate
ensuring
percentages
representing
canceled
fragmented
exerc
satanic
4460
calculate
charactors
measured
neptune
embarrassed
molasses
rectangles
amaizing
adopt
criminally
hitching
cathartic
##zzzzzzzzzzzzzzzzzzzzzzzzzzzzzzzz
theoretically
agonizing
nipples
flailing
guacame
##cancercancer
unhealthy
aom
cott
hf
hoot
obey
tames
wret
xbl
##fying
##ois
##zers
thet
##ouf
inert
belly
foraging
##adas
worht
##oute
trance
spout
##igen
crits
quasi
thematically
dispar
opn
gues
supper
accessed
embed
halflife
annou
potentional
deadlines
favorit
understandably
pastry
redicul
walkers
trex
lightweight
balloons
empower
affairs
190
dodged
operational
stressing
##cuz
yolo
racists
pooping
circular
crowds
trapper
unsatisfactory
6500
proportion
carrot
anomal
##ophobia
undeveloped
omega
meticulously
repurchase
unecessary
jumbled
uneventful
micheal
bubsy
nous
pact
vlad
##dging
##eing
##pah
toge
##itution
##utly
ony
##etz
meiers
upkeep
splic
storybook
dizz
##igor
##uming
charic
##iza
amazin
finer
finite
##qual
waving
jogue
edits
##ucted
destined
##ooker
smoothed
resourses
breakers
ballistic
protip
notepad
predic
harassment
sleepy
voll
fooling
nightmar
hurtworld
overlapping
integrate
porque
liberating
jamming
devolver
4670k
panda
aiden
sparkle
inaccur
ruski
sterling
fc4
aprox
feminist
initiative
pyramid
snowboarding
disheartening
fierce
archetypes
##plzplz
4hrs
mwr
oder
sks
##uar
##fare
##hield
rebuilt
##omans
haph
##ecut
ching
coms
exic
dement
##ulously
expired
afar
##again
grapichs
blunder
twins
edward
loader
starmade
seemless
satifying
strips
striving
occure
viole
thankyou
witches
operates
mutiple
telegraph
familiarity
ds4
minigolf
radioactive
deceiving
outrageously
conveyed
palyed
schedul
780ti
unreasonably
unconcious
freindly
accumulate
adobe
epileptic
guerrilla
##kkkkkkkkkkkkkkkkkkkkkkkkkkkkkkkk
mercilessly
rescuing
##awesomeawesome
totalbiscuit
quintessential
99999
aaaaa
fg
gbs
m2
mism
rows
##uf
##wen
##vil
##jes
##rett
ont
playthr
##acious
##adon
buu
buld
shes
upt
frags
goodluck
10hrs
muilt
diagn
plop
plates
bette
interch
dissc
finland
progres
droids
metagame
immidi
12th
sorcery
liner
##blind
briliant
judg
folkl
bumpy
gangsters
clannad
induce
pandering
tentacles
beamdog
succesor
ghouls
aspire
renowned
##ophren
tangible
pollution
debugging
mothership
singeplayer
unsuccess
abhorrent
chernarus
flimsy
unemploy
byzant
cfg
daring
eject
fert
ion
ike
np
vito
wires
##tail
##rer
##x2
##inos
thei
towel
whoring
dove
moh
mosc
expri
prede
clipped
werewolves
horns
putin
esper
fanatics
pots
helldivers
readers
specified
indies
eleg
microp
dupes
plotting
envision
heartstrings
collections
watermel
25fps
14th
unreachable
macabre
1942
hangar
flatten
sentry
##doom
dow3
hairy
deliever
magnitude
emulating
suspected
exploitable
napalm
ecchi
comprised
monetize
persistence
celebrate
replayablility
backdrops
2205
270x
eliminating
indoors
unfulfilling
leviathan
parodies
wholesome
microwave
unwieldy
guacamelee
560
fad
fals
nades
peep
uwu
##tons
##94
##wish
##kb
##ono
##etto
##acular
comms
timeframe
tramp
crah
seals
needle
acclaim
slurs
musou
##wheel
boaring
anna
breasts
posing
psn
snapping
skyline
looter
##0000000
maxis
casualties
baller
botan
swept
misrepres
functionally
radically
yoko
4x4
populate
volition
accomplishes
atrocity
blatent
attracts
stamper
egreg
reconmend
overhauls
kittens
gratification
circumstance
deployment
craziness
kidnap
pallets
tecmo
brazilian
singularity
reeks
catapults
##rrrrrrrrrrrrrrrrrrrrrrrrrrrrrrrrrrrrrrrrrrrrrrrrrrrrrrrrrrrrrrrr
proximity
masquerade
corresponding
freespace
dusk
doomsday
newspaper
pardon
cactus
chorus
ere
ix
kool
lac
noooo
rages
tides
vets
yar
##uki
##tions
##vm
##isive
##estruct
mabey
spun
outcl
recip
imbal
prow
peaked
syste
deform
differen
commiting
simples
avi
wololo
reliving
caracters
favorable
##ucking
freight
colle
godz
powerup
planetbase
upgradeable
blockland
mystic
spotlight
biosho
nvm
tender
sexually
tickle
delaying
pillage
licence
##semble
ambitions
managable
rewriting
albiet
cthulu
5820k
asthetics
##cussions
screeching
charachter
instakill
autopilot
timewaster
trajectory
interconnected
unneeded
pilgrim
anomalies
5mins
eli
nz
##ep
##houses
##will
shoo
shiz
##irst
##irable
exelent
conned
atilla
nob
goons
healed
awm
littl
blight
steamworld
brood
terry
repop
foil
drums
assim
swore
pickpock
##gesus
craps
painter
speedy
initiate
verse
hostiles
misgu
vanquish
##peg
obliterate
beds
dd2
malaria
necropolis
stereotype
creepiness
glichy
baffles
husk
hydro
replica
recomened
unfixable
regreted
shattering
dismemberment
scramble
##ayayayay
##33333333333333333333333333333333
stockpile
vanguard
einfach
folklore
eith
gul
ls
omen
yooka
##lites
##ipt
##gus
##shock
##31
##62
togh
anew
chugs
suka
willingly
amber
conti
crt
nowdays
taunt
disinter
##onsible
defiance
smoth
relieved
indones
animate
garner
variability
redirect
collide
snee
api
choos
interacts
demolished
archive
tanky
dishes
ocas
flowey
riots
##ologically
akm
proposed
l4d1
androids
automaticly
toilets
analyze
kiddie
outweighs
sdk
rngesus
vendors
sweeping
portugues
heels
cataclys
kinderg
arthur
loooong
moscow
auction
fook
kad
nop
pis
rer
uf
zor
##flies
##tin
##bc
##har
##orous
whome
##unct
bulding
##rip
##cends
mags
100000000000000000
spicy
##tings
quem
##inty
steven
backpacks
perc
##boat
gund
communism
founded
spacebase
30th
readable
swind
carpal
cameos
humili
headless
skybox
packet
throwers
hurdle
questioned
dafuq
experts
circus
sittings
ambul
2k18
smartest
panning
irish
spectate
accidentaly
paj
licens
keybord
outsider
contributed
slogging
railroads
pyro
jailbreak
neighbours
deployed
catering
nickle
hauling
berserker
sterile
symbolism
grahp
imprison
diffcult
pointers
##fixitfixitfixitfixit
detriment
livestream
##folk
unblockable
pepole
2am
aaaaaaaaa
hick
n00
voil
##lp
##cera
##bd
##61
##81
##woman
##vance
thw
##ori
onscreen
soll
bui
chant
meals
neget
weps
##ppers
mann
scatter
diffrence
daytime
##achy
warlord
tripe
##feed
loadings
potatos
##awk
##loads
launchpad
refrain
riders
posters
##brush
bordering
mehr
puny
doubtful
stressfull
tempt
calam
##iusly
ump
snowball
railway
aggressively
downvotes
tiem
kitten
ranting
lemons
establishing
offspring
ingenuity
sucessor
fleeing
gtx1060
handicap
consciousness
pione
ziggur
amidst
rebalancing
cycling
5m
b8
fec
flock
pax
sought
tina
##mg
##57
##yers
##rels
inactive
playtrough
##ghan
##thers
canib
bux
leaping
outset
anyday
adject
quando
agin
rovers
basing
resent
permen
shitshow
shortness
smb
styling
assigning
banal
insurance
##nya
hercules
headqu
gtaiv
godamn
installer
landings
childs
antial
wordpress
upsides
locales
deduction
undone
choppers
savings
giga
psychosis
##after
raping
malfunction
fisted
breadth
contributes
dubai
martian
pursuing
decoration
xb1
unexplored
contemplate
elders
promissing
1024x768
oversimplified
haphazard
320
cac
daha
righ
xinput
zam
##mite
##pieces
##mens
ite
worl
##essor
lovin
trion
crapped
sab
##aba
reviving
intercept
blanks
##boding
brau
enemie
ideally
boa
insuff
##angers
remedied
roommate
watering
burner
tencent
crosses
dogfights
shopkeeper
childrens
gorey
corrupts
energetic
dominant
adaption
fx83
subtlety
parachutes
dismant
marksman
communications
alexander
geography
khan
promissed
inspector
charisma
vehicular
reccoment
reimagining
sorcerer
sausage
disastrous
humongous
cet
gags
p2
rib
rays
tore
vil
yadda
##uva
##miss
##west
##kh
##x12
##store
harem
shet
exte
##reative
105
overgrowth
poem
scoping
seu
pea
bloss
realese
realesed
slit
gucci
comeplete
suppr
engages
bobbing
optimising
retina
mastermind
godmode
subtr
115
battlest
battleships
abilitys
programm
dissapearing
laylee
swell
joys
assassinations
budo
obsessive
harshly
simplify
bashed
distinctly
bursting
excelente
dictators
juggern
exsist
hammered
uncontrollably
necromancer
dwindling
harkens
weilding
retrospect
ziggurat
9s
dares
hg
hounds
lich
nil
s1
vavle
yaw
##laps
##iasing
##duction
##erence
##atin
tome
##isition
##enter
relog
##icer
##ighters
trapping
reclaim
overre
seag
##azzy
compleatly
##igns
decals
highways
rightly
boar
supercomputer
randy
swipe
100th
menial
50s
skyd
nontheless
francise
landmark
testicles
barbar
initally
particulary
dutch
framrate
consumables
thorugh
fundement
elderly
unexc
males
submission
bounced
investigator
aimbotting
transferred
enhancement
fragging
unwinn
pandemic
wingman
inconsequ
hiccup
cloak
convenience
persisted
lynx
courtesy
potental
aspiring
kerbin
##onononon
fruition
causal
augmentations
aplha
owlboy
plugins
assessment
undetected
oppurtunity
hastily
mammoth
shoehorned
ferrari
mcmillen
schizophren
bionic
jose
vats
##boss
gamey
##sts
##chat
unob
proff
spooks
heath
##iges
overture
crummy
stills
modo
modable
##ivil
##usal
awk
badd
##about
lites
bascially
reserve
repack
flint
considers
##ensions
difficultly
camos
absolu
gunz
drool
controllable
phisics
discard
armory
messiah
infancy
infinte
param
techland
powerhouse
##ocaly
##999
exams
##renched
diner
faceless
##hhhhhhh
##bral
booo
haram
verb
evils
goofing
taro
bloons
scrip
##aptor
cosmic
condone
sanic
luft
qualifies
aggresive
punishingly
##ketites
slopp
sliver
crouched
oyunun
boreing
##encive
sidescroll
incorporating
recycling
cherish
tigers
dictate
lyne
rectify
mosin
antagonists
douchebags
orientated
repitition
boulders
##ffffffffffffffffffffffffffffffff
prolonged
ficos
plauged
fleshing
qwerty
wretched
unwinnable
aether
fats
somb
tau
v0
wate
##burn
##bars
##books
##41
foray
haired
##acion
docks
shod
mofo
##imeter
fractions
##arty
diet
dipped
houres
intending
ador
fuze
peers
aww
enjoyability
differe
puch
wrists
differnet
puting
garrett
variaty
##uuut
monstrous
lander
rammed
shelling
nords
boarder
accomplishments
succeeding
constructor
recovered
innocence
happends
koreans
##model
wheat
calculations
outweighed
ovk
##iiiiiiiiiiiiiiiiiiiiiiiiiiiiiiiiiiiiiiiiiiiiiiiiiiiiiiiiiiiiiiii
debuffs
patrick
kagura
contoller
avarage
eps
kiting
mia
nrs
taz
uhhh
wn
wade
zee
##uke
##fp
##ailly
##mail
##bw
##pos
##vn
##jh
thumps
whant
shreds
extinguish
##amo
mocking
##ulent
wea
unsp
##players
spaw
recoo
##idea
desgin
20k
completeing
challening
edith
cooling
starpoint
poorer
matchs
randomised
indestruct
##ucked
restoration
60s
##mmv
medics
lootbox
errands
90fps
grouped
countering
thirdly
abandonded
streamline
trojan
merci
torso
arche
45fps
precis
meatboy
##breakers
junkies
pitfalls
##ascar
emulated
wipeout
unfortunatelly
exceeding
bounties
obnoxiously
frusturating
mineral
snapmap
berseria
backstabbing
lmfa
displeased
gaurd
piecing
catalog
concurrent
volcano
budokai
aye
dit
otim
pine
r3
tno
vouch
zoning
##fk
##lane
##zel
##inch
onion
habits
##ething
soil
##thouse
me1
weld
##ims
##ourt
compilation
saur
afghan
bugginess
##tech
usu
disput
20xx
##ques
borked
skool
##linear
wrapping
serveral
glam
curtain
##liy
##ltion
questlines
extremelly
camel
evar
effectiveness
##ooky
transporting
squashed
slighty
##cod
##ilties
##elle
milky
competet
bleeds
toughest
sleeper
1000s
chracters
strategizing
##warm
thirteen
megaton
queueing
permaban
autosport
berlin
contextual
leveld
uploading
leadership
feral
terribad
butthole
illustrations
unheard
melancholy
incessant
demonstrates
derelict
forewar
symptoms
popcorn
intermitt
##ketitesketites
dicking
gated
jaded
piv
vending
yore
##bz
##han
##yrs
##vl
##eda
relay
reworking
haunts
anf
makin
##antion
noclip
trillion
fug
vehical
agai
graphi
intermedi
dismal
roach
shoulda
##quently
longing
puff
wah
pert
brou
batte
##lifting
ideals
##ddr
titties
##dynam
sceneri
gtao
terrains
##oteam
touchpad
detects
servicable
precurs
soulstorm
derived
1991
uncreative
patrols
deckbuilding
membership
billed
snowfl
##flip
pork
animatronic
tidbits
##10101010
hw1
profoundly
desyncs
ponies
bewild
absoultely
reguard
##bugsbugs
hooray
nightmarish
kindergarten
whomever
grahpics
barly
cnc
dunk
daughters
faze
gil
gern
gasp
jung
mmmmm
nr
ooooo
pq
rural
ure
yacht
zap
##occ
##bath
##ayer
reloc
##them
sheri
mea
mellow
conect
everone
frown
tres
cruc
adition
feal
##ulton
teasing
didint
intere
mincraft
##ctic
accidents
triangles
shootout
smacking
generaly
cleans
animus
menace
corrupting
wonderous
medkits
huns
formats
aha
uninstalls
griev
drawers
fibb
affection
alternatively
jackbox
jackson
havin
responce
festival
storry
##flow
formerly
contributing
gtx960
mk9
8320
hench
astronom
rookies
vegetation
cyborgs
sibling
gigabytes
ricochet
olymp
reincarnation
unnoticed
hinterland
joguei
1fps
4v1
darts
fizz
pwn
tidd
wim
##cated
##course
##jg
##kels
##uns
##rolls
justification
alr
deja
enoy
everquest
magg
hem
manou
fells
scoo
prat
prague
disin
fai
slut
deflect
setbacks
mapp
freel
smth
emersion
##astered
15mins
enterpr
editors
ridge
ballance
succumb
##eroll
deliverance
midair
pixelart
trove
##rrrrr
falcon
hijack
irks
obsess
gimped
electrical
qualms
megad
infuriated
angsty
jerry
jester
atrociously
xenonauts
grafix
angered
saddening
portrayal
zeno
insightful
pussies
distributed
bunkers
hitches
bioh
guru
rerelease
##88888888888888888888888888888888
tumor
tiberium
chugging
squirrel
upscaled
william
##aturated
transmission
slingshot
probobly
predefined
6000
8ghz
dint
fen
kap
o2
srpg
##uv
##flight
##iences
##cons
##pared
##meow
##enote
islam
forsee
sober
comically
##amas
##opy
deinstall
acurate
aman
buyable
conten
aws
revie
##azo
updat
##ounted
##itively
lowly
relates
patchs
winding
discre
##oged
##entionally
headcr
larry
gunshot
reflecting
evrey
choco
textbook
crea
franken
stright
dealers
heartless
airstri
competitions
hooking
daft
experie
##ganized
gae
##111
socialist
policys
cakewalk
committing
terminators
ilk
annihilate
independence
finnicky
nba2k
ffxiv
crazed
virginia
##1111111111111111
oooh
converting
1280x720
kilometers
fanfiction
proteus
motorbike
indifferent
##blahblah
ootp
embedded
ej
hound
##lust
##cage
##bil
##yz
##incs
##atat
##itors
##vement
sth
ano
timeout
10s
acu
acer
levers
##emly
##iga
crut
looong
veloc
controle
downwell
strung
pugs
brack
bragging
thoughout
warzone
warlords
repro
coment
devious
minuts
hunder
hubs
##athy
carve
mindfuck
lineup
edit2
deathwish
passports
continous
refuel
eventualy
futility
dunwall
sandboxy
mistery
fluently
##sssss
vanity
1000x
chrom
spectating
peacefully
3200
frigg
abysm
sharpsh
senran
berry
frigging
occasionaly
1989
nexusmods
nickname
enchantress
sotfs
jazzpunk
superheroes
prefers
resurrected
diffuculty
sympathy
fruits
slavic
##ahahahahahahahahahahahahahahahahahahahahahahahahahahahahahahahah
warrants
voyage
kraken
tinted
submerged
portuguese
calamity
biohazard
1x
bere
bacter
bicycle
gend
hc
pid
tainted
wtih
##tles
##bt
##horn
##rill
##was
##wear
##xo
##vk
theese
##inges
sof
##cht
churn
alleg
willy
grit
crooks
croteam
mange
##istine
sais
savant
prank
claws
graphix
characterisation
endured
complements
accus
impending
partake
flam
genetic
##liers
bod
bois
watcher
viscera
carl
carriers
finishers
snuck
godfather
packing
squid
ramping
oppert
narrating
barbed
effortlessly
##aurs
dreamt
experin
risking
caverns
renderer
deranking
bastante
dusty
irritation
punishments
wreak
mortars
shelters
curiousity
fulfills
performence
binoc
amateurs
exhaustion
deffinatly
reigns
tiniest
inhabited
aggrivating
negativ
attrition
mvp
domain
##brake
anthrop
retract
counselor
lukewarm
plausible
altair
astoundingly
bioshocks
recoomend
fibbage
gaze
nero
pn
rr
uo
##nk
##mination
##bee
##vating
##ener
##enly
yout
reus
staling
stasis
playdead
##acially
doi
comap
##ambit
weaboo
##img
recol
sevent
##abilty
accuse
slipping
relevance
freebird
appaul
easyer
ruby
deadliest
##umpy
detecting
wrongly
spewing
freighters
duping
##oooooooooo
airborne
hotseat
robtop
ripe
1944
piranha
millisec
timber
inspires
altitude
##offs
labelled
paperwork
guarding
flagged
##ihed
wolfenst
gasoline
venturing
rollercoasters
trends
nudge
##welming
moddb
sprinkle
perpetually
mockery
pondering
monumental
shafted
##arency
##udududud
orgasm
##x900
ireland
rejoice
egregious
lmfao
buster
dazz
eador
fount
hust
juts
lug
pw
rite
vga
vhs
##uin
##fart
##oll
##rants
##esign
itget
##uty
demented
thereby
arte
crumble
intents
pokes
seated
intergal
amazement
20h
steamvr
twats
##ipid
originaly
##olous
gunners
assult
boston
superpower
genera
prospective
glitchers
survivals
walmart
armys
shoting
unplayability
snooker
dubbed
refers
subpl
earl
11th
lockers
numbered
hyping
drawer
grande
gemcraft
##mbps
defenseless
safezone
dickheads
suitably
terrorism
positioned
privateer
loudly
overlords
oceania
buffing
2600k
enslave
swordsman
obtainable
onsale
hahah
compensated
deplorable
contempt
atlantic
##rums
summarized
craziest
nomans
alcoholic
ennemy
comrade
carnivore
catastrophe
##ihihihih
reconfigure
implications
gawd
muddled
invulnerable
bie
bcuz
fending
hives
jn
natively
piling
rf
tues
tended
ymmv
##num
##gd
##xc
gamemaker
begg
whoop
hamb
##idas
##esta
noscope
##imon
proccess
##playing
golem
compressed
dia
diaries
afew
fus
##arence
underapp
smacked
##icts
boiling
potentials
humming
attacker
continents
evading
addicts
envy
##ernet
encl
terrable
imported
utmost
thoes
##ahaha
suprem
paradig
uglier
synapse
bribe
observing
recognizable
proceeding
rubble
970m
reneg
pantsu
angst
adaptive
universally
ammounts
maths
aquatic
implore
sparked
inherit
halted
transparency
##crapcrap
carrots
staircase
ounces
elimination
pioneer
prevail
rescued
grammer
scorpion
oscar
recycle
excrement
inconsequential
azer
gage
hil
jut
lb
mour
sse
##nical
##fen
##kow
##xl
##amen
##oteric
reop
foref
##vered
thatch
##ghts
conq
orgy
mane
feas
otherworld
teased
rok
blam
realisation
pued
highscore
perfe
##ossed
warbands
deviate
consent
##rail
appre
muscles
##olt
fo4
superhuman
##trash
frends
cored
##meda
confed
##ocy
normandy
firearm
kickers
familar
extrav
lolz
ultimatly
libraries
bootcamp
calrad
foolishly
panicked
compatib
condensed
pooped
erotic
rubbing
sidenote
foxhole
enviromental
##holders
chaining
shrinking
showcases
frightened
##annyanny
picross
degrade
bazooka
diminished
oftent
sporadic
pearl
dilemmas
clasic
9mm
miso
pence
pik
tatics
##ibe
##pow
##hers
##59
##rations
##zs
##jila
##erated
itunes
##leased
ina
bellow
##ithing
##adores
domes
myteam
nosc
quips
vez
diffi
revi
runway
roar
rooted
waht
wracking
flown
feelsbad
edged
favort
dried
quicksc
optimazation
restoring
##luded
enterta
retries
yeet
505
paragon
skyrock
decidedly
##shots
confuses
##angeable
millitary
premon
bullethell
referencing
appreciates
coloring
unrealistically
##steer
respectful
violated
franklin
psychology
bearings
icey
pitted
crock
griefer
xeno
cheesey
torturing
greyed
juegos
inspirations
intricacies
plugging
bg2
unpredict
adept
rougue
insights
invincibility
papa
culmin
egyptian
aproach
themselfs
cerebral
purchasers
absoloutely
avaible
immigration
blogspot
chinois
necesit
pancakes
advertisment
##qiue
unwelc
ordeal
antialiasing
sheriff
dp
eather
eric
fading
gin
lke
lyr
oms
v8
##db
##elf
##rance
##ycl
##stly
beck
hare
##seed
molt
sparing
scy
##azaki
fuckt
##peration
##dian
modelled
regime
##ifer
callouts
avons
indescri
pasta
soured
autoc
behead
powerpoint
kidney
popcap
county
40s
distaste
trainers
golds
squadron
inventories
queuing
ceil
fiery
##10100
spammy
fluidly
strewn
smashes
denmark
##lieslies
badassery
rifleman
##anteante
emphasizes
dreadn
dualshock
fxaa
revengeance
flashlights
educated
3770
junior
##hardhard
##guru
predicted
ambushes
transformations
overdue
disposable
buzzing
mantis
exemple
admirable
graficos
##goodgood
##modsmods
whiners
descriptive
##pubgpubg
blasph
tranquil
unexciting
stalingrad
##jilajila
bile
ginger
huts
jpeg
mh
nioh
pys
qol
##nik
##dark
##data
##82
##yt
##amend
befo
##chron
##charts
asi
comer
atoms
aller
noisy
spying
sporting
outsh
recources
heated
heaping
fees
##agment
veins
hade
peac
gameplaywise
##ints
bads
whereby
defying
perverted
setpieces
##ipable
suppo
esk
freeform
obduction
okami
holl
honking
computing
deathcl
snapped
schle
sandstorm
codec
admiring
##inky
besoin
fourms
harbor
abandonned
oddy
galaga
hurr
##iiiii
##buj
crawls
tasteless
erad
nineties
pistons
observer
caveman
dangerously
facil
branded
##ologies
candles
oblivious
recommned
adrenalin
censoring
elevated
bonds
conceal
somethi
indulge
transformation
tractors
demonstrate
stingy
intuative
adjacent
##alisalis
snippets
highlighting
alphabet
intolerable
forbidden
irresponsible
anywho
##ecutecut
judgment
##lapslaps
##ogedoged
1vs
860m
amen
aunt
cower
jih
pens
##fisted
##gues
##ography
##cor
##hel
##73
##enas
##aron
##vements
sobre
##owow
witha
asy
##entric
precon
pois
scoop
pell
stew
##ctions
blake
twat
decency
easilly
deformed
##def
##bol
##rawn
appet
articul
helper
##lts
##dders
brock
spacey
##uctions
swoop
discribe
standart
apes
prizes
utilities
1900
vergil
shoves
cartrid
##blood
volt
poopy
fishes
innac
hexes
professionally
deceit
kotaku
capitalize
investigations
clums
sharper
westwood
barracks
retrying
lunatic
journalist
nomad
milestones
ccg
##oooooooooooooooooooooooooooooooooooooooooooooooooooooooooooooooooooooooooooooooooooooooooooooooooooooooooooooooooooooooooooooooooooooooooooooooooooooooooooooooooooooooooooooooooooooooooooooooooooooooooooooooooooooooooooooooooooooooooooooooooooooooooooooooo
tanto
observations
anxiously
dismissed
playtesting
alerts
alerted
sentimental
barricade
##aglagl
##aidsaidsaidsaids
##yeshyeshyeshyesh
coconut
honeslty
7dtd
gametypes
ffvii
gouging
middling
##x1200
mappings
4g
bd
een
foo
jot
kw
tic
##nys
##lake
##lasting
##gone
##rally
##vac
toki
isles
##arters
rearr
socially
##adi
aslo
##rior
delus
funeral
unqiue
tring
tram
arthr
intuit
clad
sew
knack
##loat
intersp
deco
multic
defently
skating
brits
esoteric
communtiy
##arsis
swad
excec
frend
certa
apreci
accounting
coders
airland
ruiner
experienc
##oda
averaging
competently
harass
midgets
crossbows
miniature
werid
militar
greenland
brimming
lube
northgard
hesitated
unintell
xenophobic
transports
marching
enormously
orginally
angeles
cousins
##attack
settling
conveyor
impossable
##imulator
vegetables
culpr
grahics
admiral
masturbate
vassals
pigeons
guarentee
hiests
remnant
kickstarted
unbelieveable
hysterical
skyscraper
boomerang
eagles
suspensful
negetive
fatshark
oftentimes
4y
bour
dared
jizz
kd
lance
mous
rented
tthe
viel
##nin
##gf
##hw
##zones
##vie
tomm
##asse
stinking
playng
##iong
##illar
dop
meu
##amar
aligned
##ulas
##ulars
uphill
uplifting
weir
trapp
willl
aroun
overthr
preform
ploth
plauge
looped
clen
##ivating
agro
lovechild
##text
disem
enduring
downstairs
shitstorm
commits
genie
shootouts
unti
boringly
##owski
communicated
foc
computor
extrememly
clears
carc
##ressing
atmosph
fireplace
encycl
sheets
shelled
shamelessly
bloodbath
barney
graphicly
##atios
stuns
coverage
approves
fittest
journ
periodic
recognizing
faithfully
identified
circling
##iku
obstruct
rags
webpage
darwin
strongholds
smelly
analogy
dmc4
invasive
outrag
vertically
unoffical
slugish
independant
regeneration
##agram
migration
tfw
reverting
atomic
precedent
millenium
renewed
detrimental
snooze
dilemma
nimble
##quackquackquackquack
##isoisoisoiso
flippin
warmonger
agarest
imbalances
misguided
cataclysm
leveldesign
biscuit
epid
gaping
nda
ric
uz
uv
wird
##ford
##hee
##leet
reef
foresh
##aler
##adie
lifting
churning
func
fray
109
hea
contantly
overjoyed
moderation
##iches
pristine
cluck
agen
offput
accsess
fuckign
##bell
warhead
warships
soundcloud
##pha
free2play
openings
favs
purchace
espcially
keyword
##standard
armas
##scan
snk
csd
118
pubs
prese
bullies
microtransations
moto
norway
misled
cyoa
routing
reseting
stuttered
iran
gimp
patric
stabs
fetus
cloths
recruited
chuckles
decreases
audioshield
dummies
1404
farewell
convention
r6s
ludicrously
manufacturing
lingering
##aaaaaaaaaaaaaaaaaaaaaaaaaaaaaaaaaaaaaaaaaaaaaaaaaaaaaaaaaaaaaaaaaaaaaaaaaaaaaaaaaaaaaaaaaaaaaaaaaaaaaaaaaaaaaaaaaaaaaaaaaaaaaaaaaaaaaaaaaaaaaaaaaaaaaaaaaaaaaaaaaaaaaaaaaaaaaaaaaaaaaaaaaaaaaaaaaaaaaaaaaaaaaaaaaaaaaaaaaaaaaaaaaaaaaaaaaaaaaaaaaaaaaaaaaaaaaaaa
injected
lulz
runnin
proxy
relativly
constrained
exosuit
remainder
licensing
harambe
intermediate
premonition
omsi
dass
het
hunch
iyi
tq
tudo
vot
##tag
##dis
##max
##erb
##ouly
gameguru
##onium
toons
##isers
##oty
stoo
stag
##chu
##estly
mobo
lob
##imation
procr
##iger
arag
prejud
##ptable
safer
quot
clam
clint
agais
seats
##logic
thrid
##cted
fined
sligh
defective
brace
secured
lifeforms
purc
unfins
ideology
swg
favored
winters
breif
frezz
talion
installations
techinc
powerless
strife
cryo
16bit
premier
admitting
##omaniac
catwoman
sighted
diesel
##uedo
##eeeeeeeeeeeeeeeeeeeeeeee
thirds
yesteryear
fetures
weighty
hyperdrive
##woah
cautiously
playerunkown
winged
transitioning
##caust
enraging
deem
wealthy
knuckle
oynay
tweeking
inconsistency
adoles
rewiew
dysfunctional
##gggggggggggggggggggggggggggggggggggggggggggggggggggggggggggggggg
asshats
perceived
scotland
exprience
pajama
calradia
fw
fathers
lut
och
pav
xiv
x10
##gage
##dem
##maps
##jam
##redd
isent
ston
aspir
##opher
funnel
##onel
abort
abillity
##gel
ac1
outlet
dio
mano
manpower
imersion
peaple
steath
charger
intervent
20hrs
bled
strade
surplus
geneste
##dily
glider
extending
##weed
boon
tittle
garbo
civ4
##scale
##bbling
presently
postp
machina
salad
dumbing
lincol
stresses
hdr
willingness
gao
radiant
yok
militia
significance
bottomless
headsets
mmr
patrolling
recognizes
restricts
piggy
hamfisted
wester
licenses
##686666
memorized
junction
artistry
accompanying
inefficient
mulitple
hauntingly
grocery
furiously
astronauts
defiently
jewelry
illustrated
woeful
miniguns
brigade
##hhhhhhhhhhhhhhhhhhhhhhhhhhhhhhhhhhhhhhhhhhhhhhhhhhhhhhhhhhhhhhhhhhhhhhhhhhhhhhhhhhhhhhhhhhhhhhhhhhhhhhhhhhhhhhhhhhhhhhhhhhhhhhhh
podcasts
arabic
unfulfilled
nugget
unsolvable
noticably
dredmor
dolphin
sassy
galactica
accomodate
unsurpr
dignity
tiddies
agaisnt
dst
dorm
gush
hump
jr
kain
pumps
vici
##urial
##tm
##paced
##kw
##your
##itent
reiterate
anonymous
##rig
deity
##ulu
prover
outst
anyother
amped
amanda
arou
arden
felling
offscreen
thrower
interplay
additon
steamcharts
impass
waka
guarded
deviant
shootin
##venture
glitter
muskets
paycheck
ember
##uncher
##ifig
requier
100h
belg
infest
trudge
99c
walkie
collectathon
bikin
possession
macht
pixell
##uuuuu
antiqu
##vvy
masc
somber
spiked
1992
busywork
irritate
positiv
criticized
awefull
ensues
emulators
tsun
fatalities
steelport
sarah
assignments
hipsters
##4444
uncovered
puls
bunnyhop
vida
obliged
orbiting
nano
nitpicking
doritos
depicts
allocate
enigma
meele
holocaust
wiggle
alredy
nuggets
siren
prematurely
##crashcrash
recapture
orphan
multitasking
brauchen
amanita
##fartfart
feelsbadman
necesitamos
ceilings
foreshad
768
7days
cah
cale
d1
fives
glock
mf
mroe
pk
tark
wub
yam
yess
##uates
##gles
##ggy
##dont
##pent
##pies
##hearth
##start
##alia
##tera
chong
shor
alf
##ulter
suceed
weave
lew
everyt
expose
heisting
imbec
pok
##abo
addit
oportun
sloth
pcgamer
incr
underc
underp
laun
drivel
entails
posibilities
paraly
engineered
nighttime
nonlinear
smoothest
transcend
strives
avoids
execpt
25th
softwares
selectable
casts
unskilled
referenced
truckers
radi
omnip
osu
taskbar
numba
dsync
ocarina
skeptic
suspence
facets
elected
curser
griefed
pillow
otaku
mgs5
distinction
royalty
andromeda
niggers
wonde
unskipable
rct2
astonished
contribution
playerunknowns
##hacker
comprehension
augmented
victorious
decorating
##holm
whiskey
ns2
shellshock
allocation
refunct
penetrate
suvival
##esyesyesyesyesyesyesyesyesyesyesyesyesyesyesyesy
unmodded
tdu2
spoopy
cesspool
intertwined
teasers
manufacturer
ambulance
headquarters
friggen
sharpshooter
tuesday
##woahwoah
1s
210
h2
hato
licking
paces
txt
uzi
x1
xpad
##lion
##iall
##hk
##hat
##800
##rl
##kom
##jm
##inous
##iniz
##otly
ford
sos
exor
atem
alarms
deed
##anticheat
friction
unve
donations
overally
crows
pover
thingies
recomiendo
cobbled
bl1
farting
waaaaaaaaa
conserve
suppost
##ensitive
payments
boasting
mustard
classed
wobbly
effin
100hrs
clickers
controlers
gibi
snore
advoc
encaps
gtas
cardinal
avoidable
bargin
punt
concious
prepurch
legendaries
glob
temples
moniter
ugliest
daddies
fishy
influential
rubish
couples
##affe
debatable
horrified
outlaw
##123
disturb
hamlet
peeve
unequ
##lanes
emerged
375
vaults
oozing
overlays
travelled
pathfinder
adapts
furnace
clocks
wikis
costumers
prophecy
infiltration
fazer
scavange
leisurely
enchanted
professionals
00100000
discription
miyazaki
miniboss
inertia
opnion
culprit
2m
a10
dtg
eta
h3
hee
nab
nivid
ncr
nico
rut
ull
vauge
##nu
##iere
##sive
##rist
##rds
##xs
##eresting
##eno
sok
##estar
neu
allure
unter
##ainable
amo
comps
##aug
aroud
feild
##abel
cog
minot
disre
hardships
blops
slowness
origan
purg
honorable
##truck
quickest
improper
##icula
meditation
subredd
##god
plotlines
blackguards
##update
preserve
idc
bloodth
decisive
##coons
affin
fellas
userbase
gorilla
limiter
journeys
nvidea
vanishes
bootleg
breathes
suspend
rebought
##bowl
pumpkin
cellphone
assaults
980m
townsfolk
unintentionally
wreckfest
exploitation
nyc
##glasses
shiit
flopped
deffinitely
rtc
fustrated
crazier
albion
sotry
tacoma
lurk
tweek
10000000
sponsored
scouring
waaaaaay
sculpt
outlandish
##meowmeow
bacteria
anthropomorph
underappreciated
procrast
8000
ckin
ges
gddr
mide
qq
vm
vy
##eous
##mash
##pits
##pai
##wit
##wile
##orces
itens
##itas
##arria
##icz
stalled
##omi
##alistic
##send
##that
moeny
atop
enour
framing
sparks
aces
goi
##arte
grams
##igy
intimate
quer
scant
clank
##intly
offically
backer
##lsh
steamy
brat
deviation
remapped
valued
sworn
garages
looters
soulsborne
doubling
scraping
advertized
24h
##pheric
colonizing
greenlit
hillb
invisibility
psychos
expressing
spreads
##aphics
nahui
##686668
beaches
sf4
outsmart
shivers
speedruns
vulkan
ghetto
eveyone
harrowing
traversal
possesses
yahtz
wsad
excruciating
vaporware
jiggle
coconuts
diagonal
bottleneck
overflowing
abusers
allegedly
startegy
planeswalkers
jacob
##missmiss
sauron
intergalactic
yahtzee
bh
dues
g32
ira
mowed
pars
vine
##cum
##bomb
##punch
##rider
##xe
##0r
##onation
##isp
##utic
reaver
##apons
##irling
comab
alarming
##iveable
unles
unman
unrest
compounded
overtake
howard
pel
characteristic
distingu
finance
slate
fuckton
wak
perple
nothings
commu
repay
##phics
batshit
personn
fanat
engul
potrze
valent
relize
detached
givin
humerous
unplaye
redic
##retion
##oooooooooooo
copys
rambling
##cibly
hypoc
cucks
ridiculousness
arcan
unrec
harvey
netplay
##killers
boned
operated
dedic
climbs
americas
bandic
ugc
chrashes
mik
hillary
blinds
rotates
##antees
owes
stocked
##iwann
##remely
dific
claire
moose
##etrable
indicating
atelier
circumvent
pairing
concentrating
nauseum
refreshed
adapter
superflu
everythin
sustainable
incarnations
ikaru
conveying
misunderstood
sculpting
embodies
advisor
cigarette
herbivore
expanse
determining
agricult
peanut
oddysee
ikaruga
1m
2hr
6h
aest
faux
hk
ile
sb
sift
##numb
##lide
##giving
##3a
##rc
##rals
##vit
##jy
##esional
##escend
##acs
wither
buuuut
neb
##urry
algo
unat
tras
outing
outstand
grisa
crad
cling
agrees
newbs
enjoyably
buged
startling
friendlies
rosters
##izingly
20x
impen
imput
resize
resounding
warh
repitive
consid
pricepoint
lifelong
probable
gunrunning
anny
rando
keybo
detest
bossfight
retal
greasy
skylake
1280
dayzfuck
##ipper
oppai
burd
predeces
##uuuuuu
eyeball
colorblind
bennet
hdo
##kkk
cornered
##aik
translator
juke
assaulted
sprayed
##obi
scumming
hahahahahah
aircrafts
recreates
danny
brawling
incentiv
chalenge
disregarding
9999
bayonet
celest
difficu
incarnate
woudl
theoretical
mongol
redesigned
alignment
indoor
aerodynam
warranted
1930s
uprising
alleviate
kadar
precisamos
frankenstein
abysmally
##adieiwann
lincoln
purgatory
grisaia
bailed
ciri
cortex
fib
hans
hank
mcc
sots
wats
##oster
##cra
##pat
##anan
##ename
isp
isint
insec
##otics
oni
forres
##etion
ani
cran
intill
afloat
scince
pelo
againts
##erily
realities
bugsplat
warth
##ensus
lifelike
hitscan
cooled
screened
helluva
lotsa
##attering
conflux
spoilt
environe
specialization
dumbasses
unrecommend
afflict
1979
harassed
##ddddd
frontlines
gorg
bonfires
muting
footprint
accepts
disapears
aaaand
tendencies
baj
volunte
cena
cracker
havok
ripley
stonehearth
dominance
strangle
shoutout
innocents
vocals
participated
bankruptcy
springtrap
redeemable
1hour
remixed
babysitting
skateboard
stalls
##broken
stratigic
confrontation
relese
challeging
battlestar
enterprise
renegade
misogy
##bujemy
stradegy
hatoful
potrzebujemy
730
bake
ras
##nm
##iary
##dm
##pors
##jin
##nded
##oria
tosh
##isly
stly
##oose
##uno
chir
shipp
enlar
sud
weaving
108
102
triss
##playplay
dives
##asta
plough
plorts
savvy
prision
##umi
sein
wayy
runthrough
thrice
strage
twinst
decked
slid
pervert
issu
fla
shortened
explination
smug
musician
curry
fanc
beautifuly
annual
aways
rember
reliever
fret
promis
failings
##scam
snot
dupe
substandard
casue
stripping
paints
formal
pressured
##onto
spotify
machinegun
cyl
lighthouse
##uba
cattle
cataly
mutators
unden
scammer
cavern
sexism
replicated
bae
labels
unkn
electronics
piled
ashley
goddamned
phenomenon
webcam
unusually
fs15
senarios
forehead
karate
scottish
melon
gardens
entrances
monetary
gtx780
reccomened
ottomans
misunderstand
ravaged
arcadia
tcg
melancholic
doenst
cqc
dawg
meadow
botanicula
insufferable
dictatorship
azerty
encyclopedia
poverty
##adieiwannadieiwann
ahhhh
cie
gals
ming
pave
sang
tay
##uhe
##cz
##cross
##mouth
##jf
##ecked
##ente
##cel
atmost
alluring
enb
loath
lofty
everlasting
timelines
amir
diag
##veland
ploy
veg
pepp
runaway
enducing
downlo
desicions
hardwork
finder
twi
resorted
untested
regicide
phew
deadpool
avai
seemlessly
customs
##ogames
unplayed
passives
##oids
schm
123
transforms
dissu
trebu
pleasurable
##ahahaha
##668
populace
jacking
jeans
tanking
dodgeball
##boys
irritates
miramar
threatens
luan
buffer
titanium
occurance
weighted
declining
120fps
witnesses
oversaturated
rctw
hospit
tackles
inhuman
stocks
creepier
geeks
disguises
associate
mg2
##fectant
defintly
marginal
30minutes
instincts
alchem
hw2
assembled
enforcer
gestures
tissue
critisism
warchiefs
tarnished
excercise
qwop
anchor
binoculars
##powder
interspersed
offputting
intervention
xpadder
ase
baw
kms
kern
karts
ogr
rps
wied
##nia
##aulting
##rar
theses
##itle
##itives
sow
canteen
comings
abilty
##ffed
gritt
expencive
feaut
quetz
pode
interplan
dissol
##moil
thinly
opting
puyo
perch
tera
flas
perso
kebab
lifeline
##eads
##wels
laging
assorted
##ifs
helplessly
phara
changeable
breast
beatdown
minding
clickfest
metropolis
politely
passer
cape
choking
behaving
powering
douch
heroics
leavers
countered
destroyers
workshops
##uden
grimo
affili
1970
apartments
oddities
upsets
informing
toriel
miniatures
caf
175
sequals
wheelchair
desktops
fortified
falcom
denial
economical
dieses
rotk
##gasm
##thegame
recognised
votekick
ehm
subjected
submitting
mythological
gloriously
##rooms
bamboo
incentives
##olutely
tablespoon
elevate
atlant
shrink
augments
wrestle
jogging
templates
cabinets
obligation
gatling
louis
whiney
demonstration
socket
persuade
fromsoftware
barricades
reproduce
##yyyyyyyyyyyyyyyyyyyyyyyyyyyyyyyyyyyyyyyyyyyyyyyyyyyyyyyyyyyyyyyy
##buggy
williams
cyanide
afghanistan
brouz
plotholes
aun
cia
fes
fcu
gah
hiss
igr
jal
milt
nump
nascar
oi
##nable
##may
##bale
##kie
##qw
##ouns
topp
lime
##riod
##rized
comand
moist
deft
##ilous
tricer
##ationally
crotch
fumbling
peed
setback
reporter
puzzled
glare
monolog
monaco
eligible
starbase
swoo
relased
keywords
herit
deathwing
evid
entertains
##arrow
dinners
idol
oppose
turmoil
droping
equivil
chinesisch
boarded
timings
astounded
temps
carts
comparatively
monitoring
volat
strategist
potatoe
uninterested
separates
##months
tsk
fondness
hamper
carnival
accelerator
phantoms
broadside
champs
melh
lifts
backend
ferry
sailor
migraine
sotn
wyverns
devloper
javier
shambles
remixes
vapid
yields
contraption
ebay
pierce
crimsonland
crappiest
overrall
garrison
exterminate
mitigate
indirectly
seriosly
benifit
locomotives
apprehensive
chineese
danmaku
godzilla
joseph
precursor
freelance
arthritis
patrician
aided
dart
dwe
jor
jaws
koth
lfd
sip
yoy
yikes
##nly
##uo
##iations
##dg
##mation
##raus
##kas
##qm
##esk
##llers
itd
steri
playback
##lds
##thod
justin
##opol
alltogether
##esses
mako
maiden
funs
fra
trinity
##ereal
grac
grpah
becare
buyin
argent
adverts
manners
fudge
##ivate
doesen
blub
##quake
importing
inclusive
opti
##onda
secound
easyanticheat
##atha
dr2
effec
discovers
freighter
exploratory
totalwar
guesswork
##goats
trudging
texturing
##otransactions
equation
latin
assassinating
undec
##pelling
##blower
facade
deathmatches
neccessary
scarred
revolt
witnessing
uncomplete
obscured
whiterun
especial
79p
insultingly
calculator
pike
conceivable
##walker
ressure
occassion
recomed
oynam
becaue
domestic
algorithms
collapsing
punctuated
complications
##itbuyitbuyitbuyitbuyitbuyitbuyitbuyitbuy
##bourne
abnormal
kentucky
##iscovered
stormtroopers
volley
sidescrollers
journals
a3
bern
eles
fick
goooo
gret
kry
nen
preat
taint
wuss
##cos
##mac
##motion
##hits
##mech
##orost
rebalanced
##stom
forage
##etor
##acer
chun
chats
##rir
myplayer
deple
##ulator
enit
enoug
timey
aborted
unworthy
tray
hash
legged
anyting
amoung
recourse
heared
moders
peggle
##usable
goth
revam
coher
finsh
twink
farce
accol
defusing
instag
devils
differents
geni
genital
fpses
muss
obese
dru
solos
lax
constell
skillt
specify
indec
invader
psuedo
##screens
##990
column
actuality
descisions
furthest
breakable
arkada
minimizes
sonny
255
avernum
forcefully
grandia
bulletstorm
lighty
dodos
diabol
cartel
samorost
sunrise
harvested
unnamed
momment
europeans
horseback
strenght
homo
crocod
##join
actua
##iwan
competitiveness
scanned
validated
frustation
crowdfund
charect
squeezing
interpre
habitat
whisper
whispering
dystopia
glimps
degraded
minuites
anythin
enforced
pedestrian
unpreced
endeavor
##hotsuperhotsuperhotsuperhotsuper
parece
abominations
kamik
harvester
wolfenstien
proverb
subreddit
superfluous
7day
a8
cna
jos
tsp
##fin
##lick
##sucks
##cation
##aj
##mus
andrew
##lli
##itters
##ariously
forcibly
##alers
anarchy
##idly
worsh
atack
aloud
lols
upward
##imi
##oution
grail
amass
recamend
mani
imps
fearing
feathers
sai
sabert
newton
covert
taunting
worthwile
stride
impacting
slips
resupp
defunct
tripped
creater
appric
paypal
##sses
bobble
rug
cameo
civic
psi
redist
apear
apoth
collects
minimizing
ballanced
featureless
matchmaker
correction
mediocore
cement
esteem
babes
reinstalls
divorce
spinner
##blence
fortify
moods
maturity
dishonoured
haircut
akam
rampaging
propri
iceberg
##undra
organizing
mcgee
deceive
overhype
departments
dmc3
devolve
masochism
stumbles
kenway
gravel
fustration
synerg
nitpicks
avenge
ambiguity
saviour
bazillion
overpaid
unloading
remnants
manifest
##cheatingcheatingcheatingcheating
##handedly
correcting
dallas
kiwi
melodramatic
scheduled
forewarned
jungles
pixellated
undeniable
numpad
6hrs
7ghz
cind
fica
g1
gith
ips
jup
pda
ratch
t3
wading
wiring
##lists
##dn
##count
##mines
##b0
##bage
##71
##wake
##jt
thu
thon
thump
thea
##oni
topping
##isi
##sted
##struct
beli
forfe
soaking
##uned
chaser
##ript
##irsty
##uru
##antes
goodwill
lease
woulda
groo
everyon
intence
plently
saat
disall
decied
decimate
decimated
multplayer
defects
##bodies
skid
makeshift
biggie
hopfully
##ltly
beautif
elven
boggles
stares
visualy
phoned
##trusive
swaps
indians
excav
invades
rocked
infused
##hoho
psv
subd
choked
##ooooooooo
recomendations
grabing
occa
narrators
urges
cashed
successes
talkie
deliveries
1366
flux
blonde
riches
lengh
absout
##ampling
unforunately
dickhead
contacts
motivates
grimdark
fetched
reflective
manuals
myths
accesible
manipulated
tesla
assisted
mulana
surpassing
acheivments
discourages
deffinitly
dissapoints
tragically
flourish
##seconds
gettting
configurable
athena
sparta
exemp
##urmountable
unbalenced
nunca
##errorerror
eccentric
miraculously
fx8350
velocir
paradigm
twinstick
##scamscam
cds
dh
fict
fencer
mould
nce
nets
wur
wart
zx
##cond
##cub
##bm
##vb
reive
##icaly
onions
##advert
##ecking
##eend
chibi
worh
alo
unco
unwr
probel
##fff
contol
adom
##ends
plush
##activity
stear
revital
##azed
coarse
thrash
interrupting
studies
farthest
accord
flanked
genetics
escher
underage
extortion
payout
##ggled
solver
ruse
meanings
waldo
clicky
soliders
nightly
nono
facelift
eu3
200k
##coat
admited
summit
##lights
investments
##uda
castaway
nato
streamlining
masse
possiblity
ghosting
virtues
##blown
knockback
translating
erasing
##class
votek
tourist
hesitating
studied
magnetic
lawyer
organised
organisation
responsibilities
strangest
vibration
rougelikes
stratag
senpai
cancelling
definetley
ringing
harmful
princesses
freemods
##annies
complimented
laggiest
wrestler
eliminates
1985
summarise
halp
sustaining
##piase
commendable
width
turtorial
graffics
playtested
valkyrie
scourge
unprepared
tubes
penetration
unfortuantely
##mmmmmmmmmmmmmmmmmmmmmmmmmmmmmmmmmmmmmmmmmmmmmmmmmmmmmmmmmmmmmmmm
swamps
erection
spontaneously
##moneymoneymoneymoney
manuever
fumble
prowess
luftraus
pivot
enclosed
jihad
##thodox
unprecedented
2s
460
580
bain
boooo
ico
kaz
mason
wazoo
xv
xml
yan
##uded
##oken
##ein
##ebola
##afe
##bite
##paper
thers
##onian
##itimate
##lege
stong
stitch
lily
liver
dov
##irc
wording
##urous
##ophile
suda
abuses
unloaded
spaming
grumpy
recived
##osal
diz
##iged
prevel
afer
seb
##pson
backseat
blant
decim
shootem
attitudes
smiles
curses
campains
visibly
enticed
depois
##ahhh
customising
##proof
##iert
##orders
psa
apc
okayish
augs
addictively
homeland
pvz
drake
utm
motto
favours
pixely
rollcage
undef
geat
idiocy
automob
punchy
structural
surrounds
resolves
storming
tiered
delved
dashed
sensitiv
butterflies
applicable
hovercraft
transforming
rectified
breaching
fckin
higur
vegetable
meteors
giggling
2560x1080
inspection
nemisis
spreadsheets
undertones
portugal
degenerate
reinforced
negligible
spurts
auditore
francisco
plataform
fisrt
parallels
appauling
lyrics
bloodthirsty
gddr5
impenetrable
catalyst
interplanetary
##piasepiase
cil
cret
diment
glyph
hin
jing
jess
mber
nays
oro
s3
sere
vh
##cas
##busters
##rut
##wy
##kc
##ndi
gamestyle
##isite
##iten
##itiy
##anima
##otent
whites
forging
anot
exanima
##ulo
prose
intially
modability
bets
poles
scuba
pruss
runic
##logs
needles
backyard
warps
maple
flir
esch
##akin
fock
regiment
lagsp
hopefuly
lav
extremes
insomn
swath
carno
civics
correl
parade
costom
impresses
posses
watercol
##odus
tycoons
brainw
ironing
sixteen
intuitively
configs
jackie
jackass
budgets
frien
olive
hexagons
recommmend
validating
daniel
pitchfor
spyware
foggy
sexuality
einen
cherished
showering
origonal
hmd
squeaker
bitterly
reckoning
woohoo
weighs
polecam
daggerfall
stinky
##6666666666666666
overpowering
enlighten
goverment
##talk
ankle
tattoo
##mnts
repercussions
monochrome
hyperbole
brooding
supremacy
##trashtrash
ardennes
##buggybuggy
brouzouf
##goatsgoats
##suckssucks
##ebolaebola
3a
312
5am
aks
fon
g9
ganking
hose
jord
kes
nb
nh
pom
pula
ratios
sly
##nit
##nut
##gott
##tie
##hb
##vc
##jug
##isn
##around
inqu
re7
reen
whipped
sofa
##allic
##oopp
doest
##riages
comin
##urp
depleted
mails
weop
spastic
donating
recive
diy
adven
quail
##lose
##tey
interess
faire
imposed
puede
upda
creati
bigest
##ateral
hugh
unfathom
programed
mustache
entier
deprived
damp
caric
brew
droves
heresy
menacing
evr
##bbies
addictiveness
stripper
thanksgiving
##shield
distilled
macho
airline
equate
salary
salute
softcore
successors
madly
proficient
harmon
tyres
fitted
gorgeously
lieat
sensors
tweets
hideout
minimalism
##worlds
conquist
populations
revolutionized
lucy
unaccept
cohesion
argued
guarantees
palms
necro
graduated
flavors
cooperatively
scarcity
senior
downgrading
emotionless
speeches
mundo
fragment
levelled
orchestral
##iqued
shroud
unpleas
distribute
develo
1600mhz
tamriel
wrapper
montaro
catholic
reluctantly
seduce
coincident
demonstrated
6700hq
decapitated
##hehehehe
ripper
collapsed
smuggling
m4a4
prerequis
spatial
cussing
ancestors
attentive
condemned
vigilante
incursion
xbla
voila
extemely
nomanssky
##dontdont
affinities
unknowing
heritage
akamai
higurashi
7000
8hrs
dame
fd
fie
gushing
nc
naus
pf
yle
##cope
##eys
##mu
##mmend
##4me
##xes
##0d
iso
##arma
##lele
rekind
##stack
hace
##alar
anat
anthing
meand
conund
##uraly
therein
amu
arg
clusters
serge
##ivness
taiwan
minha
fait
slither
waisting
resorting
genetically
##ensibly
##ysics
personnel
communists
foddy
solit
phos
phob
drip
deadzone
##entials
entert
##inesis
videocard
##linger
blackwake
examining
##nerability
introversion
salts
effortless
hotbar
##udging
80fps
copycat
doubting
botters
murky
nuking
##2015
mutation
booth
gaij
receiver
dynamically
sunglasses
lvling
blindfold
crackdown
buffering
virtu
darned
intelligently
hamster
tilting
foreboding
transfered
unepic
breathtakingly
cheeks
ethernet
barbie
ackbar
attributed
barebone
9001
codemaster
kiddos
catered
hugging
terraform
unforgetable
devlopment
contradiction
linger
absoulutely
prostitute
babysit
velvet
fisherman
bougth
wadjet
nostag
##week
crumbling
##awakawakawakawak
coleman
chimera
##clickclickclickclick
intergrated
curently
staples
yugioh
canibals
##ulterated
monologues
github
3s
a2
dill
dand
niece
pint
rie
womb
##iot
##iks
##mq
##rk
##range
##worm
##kg
##nding
toda
##itzer
rebr
##iciously
##champ
##illance
as2
exodus
prol
##igt
##oused
clover
feelin
workben
flinging
##rah
mechanincs
##ceptions
chewing
##olas
smiled
obfus
hitmark
broader
banking
questo
ruim
phased
insurmountable
detro
conceptual
soun
smoker
challengeing
idee
specialists
grabber
sont
sonra
predomin
queer
matchmake
fellows
silhou
premises
lighten
supose
absal
##rupted
##kkin
ckii
brightly
ript
23rd
debil
veriety
lawbreakers
sidem
blatently
quarry
scumm
likley
beacons
niggas
inspirational
unfolded
validation
quantities
tentative
almay
inb4
bonding
wrestlers
communicates
pdf
hammering
devastated
financially
notoriously
psychopaths
jellyfish
wallhackers
overpowerd
crunching
##marking
pfft
duplicates
negotiate
arduous
unadulterated
giddy
infinitum
bnw
hyperspace
splicers
comabt
stlye
shippuden
melhores
1v5
dal
kup
ood
sacks
tipped
xray
##nation
##frog
##iying
##du
##caster
##ply
##pod
##kis
##know
##meg
##anth
rebu
##sto
oncoming
halar
##rose
##roid
conced
mog
##opic
##ulating
loans
funcion
spouse
acr
##ffing
amus
amph
##igan
cranking
manned
qued
modem
peg
simtower
revives
cove
offender
interse
opent
roaring
dayum
##del
flops
mechnics
joey
hops
challeng
smal
refuge
##ifactory
topdown
lineage
infer
severed
50k
refering
grease
kiddy
transplant
99p
provider
pathway
urgent
programme
roguelands
marcus
tagging
hurdles
filing
sleeve
gek
babe
hdmi
remasters
tori
sensibilities
cleverness
synthes
ff8
deranged
##mense
tasteful
pooch
matured
overlooking
ribb
homic
debated
expressive
gutter
accel
cowor
ouch
sheltered
##models
toybox
ukraine
distracts
calculating
rectangle
kissing
unistalling
ravenfield
insisted
bugfixing
overheat
390x
assembling
piercing
artyom
amalgam
masquerading
##dddddddddddddddddddddddddddddddddddddddddddddddddddddddddddddddddddddddddddddddddddddddddddddddddddddddddddddddddddddddddddddddd
grasping
guarenteed
warchief
##content
concidering
junkyard
singelplayer
surveillance
immidiately
awkard
reguardless
jnpr
feasible
celestial
sabertooth
bong
eery
fries
ih
jay
raced
tite
##uishable
##xk
##atu
##stu
whee
soar
##thood
asides
doki
shan
worded
##anty
sug
prome
##plays
donated
mummy
grill
grumps
compiled
##orton
sabre
bugfest
desks
##izen
blaring
pup
slams
defect
mayb
shitfest
warring
##lutly
consensus
cheet
glacial
shortcoming
versed
perfec
gunpowder
##orsun
solitude
##ievements
brevity
achievable
deathcam
deathstroke
##scr
rede
checkers
massivly
showers
schon
testoster
minimun
minimally
grizz
humanly
##portal
tenfold
incomple
servid
nooks
hybr
psyche
revew
4770
petrol
branding
regulary
innum
paintball
cockro
stalked
uncompleted
emerald
cheezy
[...]
